{
  "version": "1.0",
  "truncation": null,
  "padding": null,
  "added_tokens": [
    {
      "id": 0,
      "content": "[UNK]",
      "single_word": false,
      "lstrip": false,
      "rstrip": false,
      "normalized": false,
      "special": true
    },
    {
      "id": 1,
      "content": "[PAD]",
      "single_word": false,
      "lstrip": false,
      "rstrip": false,
      "normalized": false,
      "special": true
    },
    {
      "id": 2,
      "content": "[SOS]",
      "single_word": false,
      "lstrip": false,
      "rstrip": false,
      "normalized": false,
      "special": true
    },
    {
      "id": 3,
      "content": "[EOS]",
      "single_word": false,
      "lstrip": false,
      "rstrip": false,
      "normalized": false,
      "special": true
    },
    {
      "id": 4,
      "content": "[MASK]",
      "single_word": false,
      "lstrip": false,
      "rstrip": false,
      "normalized": false,
      "special": true
    }
  ],
  "normalizer": null,
  "pre_tokenizer": {
    "type": "Whitespace"
  },
  "post_processor": null,
  "decoder": null,
  "model": {
    "type": "WordPiece",
    "unk_token": "[UNK]",
    "continuing_subword_prefix": "##",
    "max_input_chars_per_word": 100,
    "vocab": {
      "[UNK]": 0,
      "[PAD]": 1,
      "[SOS]": 2,
      "[EOS]": 3,
      "[MASK]": 4,
      "\u0003": 5,
      "!": 6,
      "\"": 7,
      "#": 8,
      "$": 9,
      "%": 10,
      "&": 11,
      "'": 12,
      "(": 13,
      ")": 14,
      "+": 15,
      ",": 16,
      "-": 17,
      ".": 18,
      "/": 19,
      "0": 20,
      "1": 21,
      "2": 22,
      "3": 23,
      "4": 24,
      "5": 25,
      "6": 26,
      "7": 27,
      "8": 28,
      "9": 29,
      ":": 30,
      ";": 31,
      "?": 32,
      "@": 33,
      "A": 34,
      "B": 35,
      "C": 36,
      "D": 37,
      "E": 38,
      "F": 39,
      "G": 40,
      "H": 41,
      "I": 42,
      "J": 43,
      "K": 44,
      "L": 45,
      "M": 46,
      "N": 47,
      "O": 48,
      "P": 49,
      "Q": 50,
      "R": 51,
      "S": 52,
      "T": 53,
      "U": 54,
      "V": 55,
      "W": 56,
      "X": 57,
      "Y": 58,
      "Z": 59,
      "[": 60,
      "\\": 61,
      "]": 62,
      "^": 63,
      "_": 64,
      "`": 65,
      "a": 66,
      "b": 67,
      "c": 68,
      "d": 69,
      "e": 70,
      "f": 71,
      "g": 72,
      "h": 73,
      "i": 74,
      "j": 75,
      "k": 76,
      "l": 77,
      "m": 78,
      "n": 79,
      "o": 80,
      "p": 81,
      "q": 82,
      "r": 83,
      "s": 84,
      "t": 85,
      "u": 86,
      "v": 87,
      "w": 88,
      "x": 89,
      "y": 90,
      "z": 91,
      "|": 92,
      "~": 93,
      "": 94,
      "": 95,
      "": 96,
      "": 97,
      "": 98,
      "": 99,
      "¡": 100,
      "¢": 101,
      "£": 102,
      "¥": 103,
      "¦": 104,
      "§": 105,
      "¨": 106,
      "©": 107,
      "«": 108,
      "¬": 109,
      "­": 110,
      "®": 111,
      "¯": 112,
      "°": 113,
      "±": 114,
      "²": 115,
      "´": 116,
      "µ": 117,
      "·": 118,
      "¹": 119,
      "º": 120,
      "»": 121,
      "¼": 122,
      "½": 123,
      "¾": 124,
      "¿": 125,
      "Á": 126,
      "Â": 127,
      "Ã": 128,
      "Ä": 129,
      "Æ": 130,
      "É": 131,
      "Ð": 132,
      "Ñ": 133,
      "Ò": 134,
      "Ö": 135,
      "×": 136,
      "Ü": 137,
      "ß": 138,
      "à": 139,
      "á": 140,
      "â": 141,
      "ã": 142,
      "ä": 143,
      "å": 144,
      "æ": 145,
      "ç": 146,
      "è": 147,
      "é": 148,
      "ê": 149,
      "ë": 150,
      "ì": 151,
      "í": 152,
      "î": 153,
      "ï": 154,
      "ð": 155,
      "ñ": 156,
      "ò": 157,
      "ó": 158,
      "ô": 159,
      "ö": 160,
      "ø": 161,
      "ú": 162,
      "ü": 163,
      "ý": 164,
      "ā": 165,
      "ă": 166,
      "ą": 167,
      "ć": 168,
      "Ĉ": 169,
      "Č": 170,
      "č": 171,
      "đ": 172,
      "ė": 173,
      "ę": 174,
      "ě": 175,
      "ğ": 176,
      "İ": 177,
      "ı": 178,
      "ľ": 179,
      "ł": 180,
      "ŏ": 181,
      "ő": 182,
      "œ": 183,
      "ř": 184,
      "ś": 185,
      "Ş": 186,
      "ş": 187,
      "Š": 188,
      "š": 189,
      "ţ": 190,
      "ū": 191,
      "ŭ": 192,
      "ů": 193,
      "ž": 194,
      "ơ": 195,
      "ț": 196,
      "ɒ": 197,
      "ə": 198,
      "ɪ": 199,
      "ʻ": 200,
      "ʾ": 201,
      "ʿ": 202,
      "ˆ": 203,
      "ˈ": 204,
      "ː": 205,
      "˚": 206,
      "˜": 207,
      "̊": 208,
      "̶": 209,
      ";": 210,
      "Τ": 211,
      "Ω": 212,
      "ή": 213,
      "α": 214,
      "β": 215,
      "γ": 216,
      "δ": 217,
      "η": 218,
      "ι": 219,
      "κ": 220,
      "λ": 221,
      "μ": 222,
      "ν": 223,
      "ο": 224,
      "π": 225,
      "ρ": 226,
      "σ": 227,
      "τ": 228,
      "φ": 229,
      "ό": 230,
      "А": 231,
      "В": 232,
      "Г": 233,
      "Д": 234,
      "З": 235,
      "И": 236,
      "К": 237,
      "Л": 238,
      "М": 239,
      "Н": 240,
      "О": 241,
      "П": 242,
      "Р": 243,
      "С": 244,
      "Т": 245,
      "У": 246,
      "Ф": 247,
      "Ш": 248,
      "Э": 249,
      "а": 250,
      "б": 251,
      "в": 252,
      "г": 253,
      "д": 254,
      "е": 255,
      "ж": 256,
      "з": 257,
      "и": 258,
      "й": 259,
      "к": 260,
      "л": 261,
      "м": 262,
      "н": 263,
      "о": 264,
      "п": 265,
      "р": 266,
      "с": 267,
      "т": 268,
      "у": 269,
      "ф": 270,
      "х": 271,
      "ц": 272,
      "ч": 273,
      "ш": 274,
      "щ": 275,
      "ъ": 276,
      "ы": 277,
      "ь": 278,
      "э": 279,
      "ю": 280,
      "я": 281,
      "ё": 282,
      "ѓ": 283,
      "ѕ": 284,
      "і": 285,
      "џ": 286,
      "ґ": 287,
      "Յ": 288,
      "Ն": 289,
      "ء": 290,
      "آ": 291,
      "أ": 292,
      "ا": 293,
      "ب": 294,
      "ت": 295,
      "ج": 296,
      "ح": 297,
      "خ": 298,
      "د": 299,
      "ر": 300,
      "ز": 301,
      "س": 302,
      "ش": 303,
      "ط": 304,
      "ع": 305,
      "ف": 306,
      "ل": 307,
      "م": 308,
      "ن": 309,
      "ه": 310,
      "و": 311,
      "ي": 312,
      "پ": 313,
      "چ": 314,
      "ک": 315,
      "گ": 316,
      "ی": 317,
      "ं": 318,
      "क": 319,
      "ग": 320,
      "ज": 321,
      "द": 322,
      "न": 323,
      "य": 324,
      "र": 325,
      "ल": 326,
      "व": 327,
      "ा": 328,
      "ि": 329,
      "े": 330,
      "ो": 331,
      "्": 332,
      "আ": 333,
      "ই": 334,
      "ক": 335,
      "ছ": 336,
      "জ": 337,
      "ট": 338,
      "থ": 339,
      "ন": 340,
      "প": 341,
      "ব": 342,
      "ম": 343,
      "র": 344,
      "ল": 345,
      "স": 346,
      "া": 347,
      "ি": 348,
      "ে": 349,
      "ো": 350,
      "্": 351,
      "ড়": 352,
      "য়": 353,
      "৳": 354,
      "ṇ": 355,
      "ạ": 356,
      "ế": 357,
      "ố": 358,
      "ớ": 359,
      "​": 360,
      "‎": 361,
      "‏": 362,
      "‐": 363,
      "‑": 364,
      "–": 365,
      "—": 366,
      "‘": 367,
      "’": 368,
      "‚": 369,
      "“": 370,
      "”": 371,
      "„": 372,
      "†": 373,
      "•": 374,
      "…": 375,
      "′": 376,
      "″": 377,
      "›": 378,
      "‼": 379,
      "⁄": 380,
      "€": 381,
      "₹": 382,
      "℃": 383,
      "℠": 384,
      "™": 385,
      "⅞": 386,
      "←": 387,
      "↑": 388,
      "→": 389,
      "−": 390,
      "∫": 391,
      "≤": 392,
      "≥": 393,
      "▲": 394,
      "●": 395,
      "☆": 396,
      "♡": 397,
      "♣": 398,
      "♥": 399,
      "♦": 400,
      "✓": 401,
      "✨": 402,
      "❤": 403,
      "、": 404,
      "。": 405,
      "【": 406,
      "】": 407,
      "の": 408,
      "ツ": 409,
      "一": 410,
      "上": 411,
      "不": 412,
      "与": 413,
      "且": 414,
      "东": 415,
      "両": 416,
      "中": 417,
      "为": 418,
      "义": 419,
      "之": 420,
      "也": 421,
      "了": 422,
      "事": 423,
      "于": 424,
      "人": 425,
      "介": 426,
      "从": 427,
      "以": 428,
      "们": 429,
      "但": 430,
      "位": 431,
      "作": 432,
      "佩": 433,
      "便": 434,
      "修": 435,
      "做": 436,
      "儿": 437,
      "关": 438,
      "其": 439,
      "写": 440,
      "则": 441,
      "利": 442,
      "别": 443,
      "到": 444,
      "前": 445,
      "办": 446,
      "务": 447,
      "动": 448,
      "助": 449,
      "区": 450,
      "即": 451,
      "厅": 452,
      "原": 453,
      "去": 454,
      "又": 455,
      "及": 456,
      "反": 457,
      "句": 458,
      "只": 459,
      "可": 460,
      "合": 461,
      "名": 462,
      "后": 463,
      "向": 464,
      "听": 465,
      "告": 466,
      "和": 467,
      "响": 468,
      "因": 469,
      "在": 470,
      "地": 471,
      "均": 472,
      "声": 473,
      "外": 474,
      "多": 475,
      "夜": 476,
      "如": 477,
      "学": 478,
      "它": 479,
      "完": 480,
      "定": 481,
      "实": 482,
      "容": 483,
      "对": 484,
      "导": 485,
      "将": 486,
      "就": 487,
      "展": 488,
      "山": 489,
      "工": 490,
      "差": 491,
      "布": 492,
      "带": 493,
      "常": 494,
      "平": 495,
      "应": 496,
      "开": 497,
      "式": 498,
      "形": 499,
      "态": 500,
      "思": 501,
      "恰": 502,
      "情": 503,
      "想": 504,
      "意": 505,
      "成": 506,
      "我": 507,
      "或": 508,
      "所": 509,
      "択": 510,
      "指": 511,
      "接": 512,
      "控": 513,
      "改": 514,
      "放": 515,
      "敲": 516,
      "方": 517,
      "无": 518,
      "时": 519,
      "是": 520,
      "普": 521,
      "月": 522,
      "有": 523,
      "服": 524,
      "朝": 525,
      "未": 526,
      "机": 527,
      "来": 528,
      "构": 529,
      "析": 530,
      "果": 531,
      "某": 532,
      "样": 533,
      "梩": 534,
      "棉": 535,
      "楊": 536,
      "正": 537,
      "段": 538,
      "比": 539,
      "毛": 540,
      "没": 541,
      "法": 542,
      "注": 543,
      "洗": 544,
      "火": 545,
      "点": 546,
      "物": 547,
      "猜": 548,
      "现": 549,
      "用": 550,
      "由": 551,
      "电": 552,
      "白": 553,
      "的": 554,
      "相": 555,
      "破": 556,
      "示": 557,
      "离": 558,
      "等": 559,
      "结": 560,
      "维": 561,
      "置": 562,
      "羊": 563,
      "美": 564,
      "者": 565,
      "而": 566,
      "肢": 567,
      "般": 568,
      "若": 569,
      "行": 570,
      "衣": 571,
      "表": 572,
      "被": 573,
      "要": 574,
      "览": 575,
      "认": 576,
      "词": 577,
      "话": 578,
      "该": 579,
      "语": 580,
      "误": 581,
      "说": 582,
      "责": 583,
      "赞": 584,
      "赵": 585,
      "起": 586,
      "路": 587,
      "较": 588,
      "过": 589,
      "这": 590,
      "进": 591,
      "远": 592,
      "连": 593,
      "适": 594,
      "通": 595,
      "遇": 596,
      "選": 597,
      "那": 598,
      "鐵": 599,
      "钦": 600,
      "铃": 601,
      "门": 602,
      "闪": 603,
      "间": 604,
      "际": 605,
      "除": 606,
      "陪": 607,
      "面": 608,
      "饰": 609,
      "黑": 610,
      "龙": 611,
      "굴": 612,
      "근": 613,
      "기": 614,
      "드": 615,
      "로": 616,
      "만": 617,
      "명": 618,
      "사": 619,
      "상": 620,
      "샷": 621,
      "서": 622,
      "세": 623,
      "스": 624,
      "얼": 625,
      "영": 626,
      "인": 627,
      "접": 628,
      "초": 629,
      "촬": 630,
      "칠": 631,
      "터": 632,
      "텍": 633,
      "트": 634,
      "판": 635,
      "포": 636,
      "헤": 637,
      "호": 638,
      "화": 639,
      "": 640,
      "": 641,
      "ﬀ": 642,
      "ﬁ": 643,
      "ﬂ": 644,
      "﻿": 645,
      "（": 646,
      "）": 647,
      "＋": 648,
      "，": 649,
      "：": 650,
      "；": 651,
      "ﾺ": 652,
      "�": 653,
      "🏻": 654,
      "👉": 655,
      "👯": 656,
      "💓": 657,
      "💘": 658,
      "💜": 659,
      "💯": 660,
      "📚": 661,
      "🔨": 662,
      "😀": 663,
      "😉": 664,
      "😊": 665,
      "😋": 666,
      "😝": 667,
      "😹": 668,
      "🙂": 669,
      "🙌": 670,
      "##o": 671,
      "##s": 672,
      "##e": 673,
      "##n": 674,
      "##c": 675,
      "##r": 676,
      "##a": 677,
      "##t": 678,
      "##l": 679,
      "##f": 680,
      "##i": 681,
      "##е": 682,
      "##g": 683,
      "##u": 684,
      "##m": 685,
      "##j": 686,
      "##b": 687,
      "##p": 688,
      "##y": 689,
      "##F": 690,
      "##M": 691,
      "##E": 692,
      "##U": 693,
      "##w": 694,
      "##d": 695,
      "##P": 696,
      "##A": 697,
      "##C": 698,
      "##O": 699,
      "##z": 700,
      "##h": 701,
      "##v": 702,
      "##k": 703,
      "##S": 704,
      "##G": 705,
      "##R": 706,
      "##B": 707,
      "##8": 708,
      "##4": 709,
      "##5": 710,
      "##N": 711,
      "##V": 712,
      "##I": 713,
      "##D": 714,
      "##0": 715,
      "##3": 716,
      "##6": 717,
      "##7": 718,
      "##x": 719,
      "##а": 720,
      "##г": 721,
      "##о": 722,
      "##р": 723,
      "##д": 724,
      "##н": 725,
      "##L": 726,
      "##Y": 727,
      "##T": 728,
      "##q": 729,
      "##ü": 730,
      "##1": 731,
      "##9": 732,
      "##2": 733,
      "##W": 734,
      "##™": 735,
      "##.": 736,
      "##/": 737,
      "##ó": 738,
      "##H": 739,
      "##K": 740,
      "##é": 741,
      "##)": 742,
      "##Q": 743,
      "##ه": 744,
      "##م": 745,
      "##ر": 746,
      "##ی": 747,
      "##ک": 748,
      "##ا": 749,
      "##ú": 750,
      "##;": 751,
      "##_": 752,
      "##,": 753,
      "##”": 754,
      "##ì": 755,
      "##": 756,
      "##ѕ": 757,
      "##J": 758,
      "##ö": 759,
      "##X": 760,
      "##Ñ": 761,
      "##常": 762,
      "##要": 763,
      "##与": 764,
      "##ё": 765,
      "##п": 766,
      "##α": 767,
      "##í": 768,
      "##т": 769,
      "##у": 770,
      "##\"": 771,
      "##Z": 772,
      "##в": 773,
      "##ы": 774,
      "##!": 775,
      "##к": 776,
      "##с": 777,
      "##м": 778,
      "##–": 779,
      "##ı": 780,
      "##'": 781,
      "##’": 782,
      "##ﬀ": 783,
      "##è": 784,
      "##л": 785,
      "##я": 786,
      "##ä": 787,
      "##े": 788,
      "##ं": 789,
      "##द": 790,
      "##й": 791,
      "##说": 792,
      "##â": 793,
      "##过": 794,
      "##去": 795,
      "##时": 796,
      "##态": 797,
      "##连": 798,
      "##用": 799,
      "##ﬂ": 800,
      "##å": 801,
      "##ш": 802,
      "##ă": 803,
      "##ß": 804,
      "##ł": 805,
      "##ě": 806,
      "##?": 807,
      "##á": 808,
      "##该": 809,
      "##结": 810,
      "##构": 811,
      "##通": 812,
      "##可": 813,
      "##以": 814,
      "##从": 815,
      "##句": 816,
      "##ã": 817,
      "##ñ": 818,
      "##ʻ": 819,
      "##-": 820,
      "##ğ": 821,
      "##ç": 822,
      "##Â": 823,
      "##Ö": 824,
      "##(": 825,
      "##≥": 826,
      "###": 827,
      "##平": 828,
      "##鐵": 829,
      "##路": 830,
      "##à": 831,
      "##ش": 832,
      "##是": 833,
      "##接": 834,
      "##—": 835,
      "##ï": 836,
      "##…": 837,
      "##щ": 838,
      "##и": 839,
      "##上": 840,
      "##学": 841,
      "##і": 842,
      "##一": 843,
      "##对": 844,
      "##反": 845,
      "##义": 846,
      "##词": 847,
      "##@": 848,
      "##б": 849,
      "##ч": 850,
      "##ь": 851,
      "##ʿ": 852,
      "##ā": 853,
      "##º": 854,
      "##+": 855,
      "##ů": 856,
      "##ž": 857,
      "##§": 858,
      "##판": 859,
      "##ê": 860,
      "##`": 861,
      "##意": 862,
      "##不": 863,
      "##将": 864,
      "##其": 865,
      "##中": 866,
      "##的": 867,
      "##介": 868,
      "##它": 869,
      "##办": 870,
      "##法": 871,
      "##х": 872,
      "##样": 873,
      "##ф": 874,
      "##ц": 875,
      "##合": 876,
      "##原": 877,
      "##�": 878,
      "##就": 879,
      "##洗": 880,
      "##衣": 881,
      "##机": 882,
      "##া": 883,
      "##প": 884,
      "##ড়": 885,
      "##ে": 886,
      "##র": 887,
      "##如": 888,
      "##ﬁ": 889,
      "##想": 890,
      "##‘": 891,
      "##ø": 892,
      "##\\": 893,
      "##з": 894,
      "##​": 895,
      "##æ": 896,
      "##ম": 897,
      "##ন": 898,
      "##✨": 899,
      "##[": 900,
      "##思": 901,
      "##我": 902,
      "##们": 903,
      "##所": 904,
      "##棉": 905,
      "##:": 906,
      "##¯": 907,
      "##명": 908,
      "##ớ": 909,
      "##Ã": 910,
      "##˜": 911,
      "##为": 912,
      "##因": 913,
      "##维": 914,
      "##山": 915,
      "##č": 916,
      "##带": 917,
      "##ŭ": 918,
      "##ﾺ": 919,
      "##ę": 920,
      "##ą": 921,
      "##只": 922,
      "##作": 923,
      "##及": 924,
      "##物": 925,
      "##动": 926,
      "##£": 927,
      "##ş": 928,
      "##ľ": 929,
      "##ð": 930,
      "##“": 931,
      "##ت": 932,
      "##]": 933,
      "##布": 934,
      "##做": 935,
      "##服": 936,
      "##É": 937,
      "##্": 938,
      "##জ": 939,
      "##ি": 940,
      "##ল": 941,
      "##^": 942,
      "##ý": 943,
      "##ط": 944,
      "##ل": 945,
      "##ع": 946,
      "##ô": 947,
      "##%": 948,
      "##ز": 949,
      "##正": 950,
      "##인": 951,
      "##$": 952,
      "##‏": 953,
      "##表": 954,
      "##示": 955,
      "##现": 956,
      "##在": 957,
      "##起": 958,
      "##点": 959,
      "##段": 960,
      "##间": 961,
      "##适": 962,
      "##ŏ": 963,
      "##控": 964,
      "##告": 965,
      "##那": 966,
      "##儿": 967,
      "##س": 968,
      "##方": 969,
      "##向": 970,
      "##朝": 971,
      "##话": 972,
      "##者": 973,
      "##位": 974,
      "##置": 975,
      "##&": 976,
      "##گ": 977,
      "##ن": 978,
      "##完": 979,
      "##成": 980,
      "##式": 981,
      "##或": 982,
      "##进": 983,
      "##行": 984,
      "##د": 985,
      "##¬": 986,
      "##ˆ": 987,
      "##ю": 988,
      "##名": 989,
      "##호": 990,
      "##于": 991,
      "##关": 992,
      "##门": 993,
      "##龙": 994,
      "##果": 995,
      "##š": 996,
      "##指": 997,
      "##听": 998,
      "##到": 999,
      "##铃": 1000,
      "##响": 1001,
      "##敲": 1002,
      "##声": 1003,
      "##而": 1004,
      "##开": 1005,
      "##्": 1006,
      "##र": 1007,
      "##ा": 1008,
      "##य": 1009,
      "##ो": 1010,
      "##ज": 1011,
      "##न": 1012,
      "##ि": 1013,
      "##क": 1014,
      "##ґ": 1015,
      "##Æ": 1016,
      "##ж": 1017,
      "##ő": 1018,
      "##应": 1019,
      "##放": 1020,
      "##被": 1021,
      "##修": 1022,
      "##饰": 1023,
      "##语": 1024,
      "##之": 1025,
      "##前": 1026,
      "##~": 1027,
      "##스": 1028,
      "##터": 1029,
      "##离": 1030,
      "##遇": 1031,
      "##等": 1032,
      "##€": 1033,
      "##≤": 1034,
      "##误": 1035,
      "##由": 1036,
      "##»": 1037,
      "##و": 1038,
      "##梩": 1039,
      "##접": 1040,
      "##স": 1041,
      "##Ü": 1042,
      "##般": 1043,
      "##ج": 1044,
      "##ء": 1045,
      "##这": 1046,
      "##区": 1047,
      "##别": 1048,
      "##ح": 1049,
      "##ţ": 1050,
      "##ơ": 1051,
      "##ṇ": 1052,
      "##트": 1053,
      "##λ": 1054,
      "##φ": 1055,
      "##ι": 1056,
      "##τ": 1057,
      "##ο": 1058,
      "##ν": 1059,
      "##î": 1060,
      "##ế": 1061,
      "##ř": 1062,
      "##ė": 1063,
      "##除": 1064,
      "##了": 1065,
      "##某": 1066,
      "##事": 1067,
      "##外": 1068,
      "##没": 1069,
      "##责": 1070,
      "##人": 1071,
      "##ف": 1072,
      "##상": 1073,
      "##화": 1074,
      "##の": 1075,
      "##選": 1076,
      "##択": 1077,
      "##肢": 1078,
      "##月": 1079,
      "##夜": 1080,
      "##白": 1081,
      "##羊": 1082,
      "##后": 1083,
      "##ক": 1084,
      "##ছ": 1085,
      "##ي": 1086,
      "##差": 1087,
      "##多": 1088,
      "##工": 1089,
      "##ū": 1090,
      "##В": 1091,
      "##定": 1092,
      "##ট": 1093,
      "##영": 1094,
      "##ल": 1095,
      "##व": 1096,
      "##陪": 1097,
      "##地": 1098,
      "##β": 1099,
      "##ό": 1100,
      "##γ": 1101,
      "##即": 1102,
      "##ț": 1103,
      "##形": 1104,
      "##容": 1105,
      "##": 1106,
      "##ː": 1107,
      "##ѓ": 1108,
      "##У": 1109,
      "##Т": 1110,
      "##Л": 1111,
      "##О": 1112,
      "##。": 1113,
      "##̶": 1114,
      "##实": 1115,
      "##际": 1116,
      "##未": 1117,
      "##로": 1118,
      "##♥": 1119,
      "##ë": 1120,
      "##ć": 1121,
      "##无": 1122,
      "##ো": 1123,
      "##য়": 1124,
      "##😹": 1125,
      "##ɪ": 1126,
      "##面": 1127,
      "##也": 1128,
      "##ъ": 1129,
      "##굴": 1130,
      "##远": 1131,
      "##便": 1132,
      "##改": 1133,
      "##写": 1134,
      "##ʾ": 1135,
      "##较": 1136,
      "##利": 1137,
      "##展": 1138,
      "##厅": 1139,
      "##普": 1140,
      "##导": 1141,
      "##览": 1142,
      "##务": 1143,
      "##ạ": 1144,
      "##钦": 1145,
      "##佩": 1146,
      "##赞": 1147,
      "##美": 1148,
      "##ò": 1149,
      "##ố": 1150,
      "##أ": 1151,
      "##ή": 1152,
      "##η": 1153,
      "##σ": 1154,
      "##|": 1155,
      "##闪": 1156,
      "##电": 1157,
      "##💯": 1158,
      "##Г": 1159,
      "##џ": 1160,
      "##🏻": 1161,
      "##👯": 1162,
      "##❤": 1163,
      "##ই": 1164,
      "##¢": 1165,
      "##드": 1166,
      "##샷": 1167,
      "##he": 1168,
      "##in": 1169,
      "##er": 1170,
      "the": 1171,
      "##nd": 1172,
      "##at": 1173,
      "##es": 1174,
      "##on": 1175,
      "##or": 1176,
      "##ou": 1177,
      "##en": 1178,
      "##ing": 1179,
      "##ed": 1180,
      "to": 1181,
      "##it": 1182,
      "##an": 1183,
      "##ar": 1184,
      "##al": 1185,
      "and": 1186,
      "of": 1187,
      "in": 1188,
      "##re": 1189,
      "##is": 1190,
      "##ic": 1191,
      "##om": 1192,
      "##as": 1193,
      "##ion": 1194,
      "th": 1195,
      "##le": 1196,
      "##ent": 1197,
      "##il": 1198,
      "##el": 1199,
      "##et": 1200,
      "##st": 1201,
      "you": 1202,
      "##ro": 1203,
      "##ct": 1204,
      "is": 1205,
      "##ve": 1206,
      "for": 1207,
      "##ut": 1208,
      "##ur": 1209,
      "##ot": 1210,
      "on": 1211,
      "be": 1212,
      "re": 1213,
      "##ly": 1214,
      "##ow": 1215,
      "##id": 1216,
      "##ay": 1217,
      "##ce": 1218,
      "##ol": 1219,
      "##ith": 1220,
      "##ad": 1221,
      "that": 1222,
      "##ig": 1223,
      "##ch": 1224,
      "st": 1225,
      "##ation": 1226,
      "##am": 1227,
      "with": 1228,
      "##se": 1229,
      "##ir": 1230,
      "##ver": 1231,
      "it": 1232,
      "The": 1233,
      "##im": 1234,
      "al": 1235,
      "as": 1236,
      "##ter": 1237,
      "wh": 1238,
      "an": 1239,
      "##ess": 1240,
      "pro": 1241,
      "##ill": 1242,
      "##ul": 1243,
      "are": 1244,
      "##ers": 1245,
      "ha": 1246,
      "##ra": 1247,
      "or": 1248,
      "com": 1249,
      "##est": 1250,
      "##oo": 1251,
      "##ge": 1252,
      "##her": 1253,
      "con": 1254,
      "##ment": 1255,
      "fr": 1256,
      "##pp": 1257,
      "##ak": 1258,
      "at": 1259,
      "##ck": 1260,
      "se": 1261,
      "ex": 1262,
      "##ate": 1263,
      "your": 1264,
      "ne": 1265,
      "we": 1266,
      "##ld": 1267,
      "su": 1268,
      "##ab": 1269,
      "##if": 1270,
      "de": 1271,
      "##ist": 1272,
      "##us": 1273,
      "##op": 1274,
      "##igh": 1275,
      "##th": 1276,
      "was": 1277,
      "##ant": 1278,
      "have": 1279,
      "##ear": 1280,
      "##ies": 1281,
      "##ive": 1282,
      "can": 1283,
      "##iv": 1284,
      "sh": 1285,
      "##ity": 1286,
      "##ust": 1287,
      "##pe": 1288,
      "from": 1289,
      "##ore": 1290,
      "##un": 1291,
      "ch": 1292,
      "##ain": 1293,
      "this": 1294,
      "##ort": 1295,
      "not": 1296,
      "##em": 1297,
      "##art": 1298,
      "##os": 1299,
      "by": 1300,
      "##um": 1301,
      "will": 1302,
      "##ome": 1303,
      "wor": 1304,
      "##and": 1305,
      "##ie": 1306,
      "##ight": 1307,
      "en": 1308,
      "##out": 1309,
      "##all": 1310,
      "all": 1311,
      "##ould": 1312,
      "##ally": 1313,
      "ab": 1314,
      "pl": 1315,
      "do": 1316,
      "##ost": 1317,
      "##gh": 1318,
      "##per": 1319,
      "##ard": 1320,
      "##ell": 1321,
      "##our": 1322,
      "so": 1323,
      "##ud": 1324,
      "he": 1325,
      "##ci": 1326,
      "##od": 1327,
      "##rou": 1328,
      "##ect": 1329,
      "us": 1330,
      "pr": 1331,
      "but": 1332,
      "whe": 1333,
      "comp": 1334,
      "##ast": 1335,
      "Th": 1336,
      "ad": 1337,
      "has": 1338,
      "##ine": 1339,
      "##ure": 1340,
      "##ag": 1341,
      "##ip": 1342,
      "##age": 1343,
      "up": 1344,
      "out": 1345,
      "##qu": 1346,
      "me": 1347,
      "In": 1348,
      "le": 1349,
      "##ik": 1350,
      "tr": 1351,
      "##ib": 1352,
      "##ther": 1353,
      "##ook": 1354,
      "##ide": 1355,
      "##ions": 1356,
      "##ind": 1357,
      "##ack": 1358,
      "their": 1359,
      "##ake": 1360,
      "##ich": 1361,
      "##ated": 1362,
      "##ac": 1363,
      "they": 1364,
      "our": 1365,
      "my": 1366,
      "##mp": 1367,
      "##ff": 1368,
      "##ice": 1369,
      "cl": 1370,
      "##og": 1371,
      "##so": 1372,
      "##able": 1373,
      "more": 1374,
      "##ere": 1375,
      "##ous": 1376,
      "res": 1377,
      "20": 1378,
      "##cc": 1379,
      "##ong": 1380,
      "##ood": 1381,
      "tim": 1382,
      "##nt": 1383,
      "##one": 1384,
      "##iz": 1385,
      "##pt": 1386,
      "##ite": 1387,
      "one": 1388,
      "cont": 1389,
      "int": 1390,
      "work": 1391,
      "##ence": 1392,
      "man": 1393,
      "which": 1394,
      "##act": 1395,
      "about": 1396,
      "lo": 1397,
      "##ail": 1398,
      "##fer": 1399,
      "te": 1400,
      "inc": 1401,
      "##ance": 1402,
      "##ach": 1403,
      "who": 1404,
      "It": 1405,
      "fe": 1406,
      "##ike": 1407,
      "##ans": 1408,
      "qu": 1409,
      "##ace": 1410,
      "##orm": 1411,
      "##reat": 1412,
      "sp": 1413,
      "##ond": 1414,
      "go": 1415,
      "app": 1416,
      "##are": 1417,
      "##du": 1418,
      "##ations": 1419,
      "##ical": 1420,
      "##ely": 1421,
      "##ame": 1422,
      "##ire": 1423,
      "time": 1424,
      "##ap": 1425,
      "other": 1426,
      "year": 1427,
      "also": 1428,
      "##ia": 1429,
      "##ry": 1430,
      "##ign": 1431,
      "per": 1432,
      "any": 1433,
      "We": 1434,
      "##ass": 1435,
      "##ult": 1436,
      "some": 1437,
      "##ep": 1438,
      "##ase": 1439,
      "ev": 1440,
      "##ree": 1441,
      "get": 1442,
      "his": 1443,
      "##ick": 1444,
      "part": 1445,
      "##ents": 1446,
      "##av": 1447,
      "##lo": 1448,
      "St": 1449,
      "un": 1450,
      "##ue": 1451,
      "##ber": 1452,
      "dis": 1453,
      "##ile": 1454,
      "##au": 1455,
      "ser": 1456,
      "This": 1457,
      "when": 1458,
      "##ays": 1459,
      "them": 1460,
      "##ary": 1461,
      "if": 1462,
      "##ings": 1463,
      "kn": 1464,
      "##ial": 1465,
      "like": 1466,
      "her": 1467,
      "ar": 1468,
      "new": 1469,
      "##ark": 1470,
      "pe": 1471,
      "##vel": 1472,
      "##ub": 1473,
      "##ount": 1474,
      "what": 1475,
      "there": 1476,
      "##form": 1477,
      "imp": 1478,
      "##own": 1479,
      "ag": 1480,
      "been": 1481,
      "##ction": 1482,
      "over": 1483,
      "##pl": 1484,
      "need": 1485,
      "Ch": 1486,
      "##ition": 1487,
      "inter": 1488,
      "##ough": 1489,
      "spe": 1490,
      "##wn": 1491,
      "##ru": 1492,
      "had": 1493,
      "##ors": 1494,
      "##very": 1495,
      "##ord": 1496,
      "##ens": 1497,
      "just": 1498,
      "##ery": 1499,
      "than": 1500,
      "would": 1501,
      "were": 1502,
      "pre": 1503,
      "##ild": 1504,
      "sa": 1505,
      "##ink": 1506,
      "201": 1507,
      "its": 1508,
      "how": 1509,
      "##ople": 1510,
      "##nder": 1511,
      "##ress": 1512,
      "off": 1513,
      "bec": 1514,
      "into": 1515,
      "rec": 1516,
      "des": 1517,
      "##ose": 1518,
      "am": 1519,
      "acc": 1520,
      "##te": 1521,
      "hel": 1522,
      "##ound": 1523,
      "people": 1524,
      "##rough": 1525,
      "tra": 1526,
      "sc": 1527,
      "prov": 1528,
      "##fter": 1529,
      "co": 1530,
      "comm": 1531,
      "##ual": 1532,
      "##ish": 1533,
      "##ade": 1534,
      "##int": 1535,
      "she": 1536,
      "no": 1537,
      "##ang": 1538,
      "col": 1539,
      "##ory": 1540,
      "##ater": 1541,
      "fir": 1542,
      "make": 1543,
      "##lic": 1544,
      "##00": 1545,
      "If": 1546,
      "##ces": 1547,
      "ind": 1548,
      "##iver": 1549,
      "##cial": 1550,
      "##ful": 1551,
      "use": 1552,
      "most": 1553,
      "only": 1554,
      "##ning": 1555,
      "know": 1556,
      "You": 1557,
      "##itt": 1558,
      "add": 1559,
      "help": 1560,
      "may": 1561,
      "produ": 1562,
      "bu": 1563,
      "##ian": 1564,
      "look": 1565,
      "##lud": 1566,
      "##oc": 1567,
      "##mer": 1568,
      "every": 1569,
      "##ments": 1570,
      "##ates": 1571,
      "##ause": 1572,
      "want": 1573,
      "well": 1574,
      "see": 1575,
      "act": 1576,
      "cons": 1577,
      "##gr": 1578,
      "##ob": 1579,
      "Al": 1580,
      "serv": 1581,
      "##ons": 1582,
      "##ov": 1583,
      "tw": 1584,
      "through": 1585,
      "##ating": 1586,
      "dif": 1587,
      "##ious": 1588,
      "rel": 1589,
      "exper": 1590,
      "bl": 1591,
      "##ied": 1592,
      "##round": 1593,
      "bet": 1594,
      "these": 1595,
      "ph": 1596,
      "under": 1597,
      "first": 1598,
      "##hed": 1599,
      "includ": 1600,
      "##low": 1601,
      "Wh": 1602,
      "##hing": 1603,
      "very": 1604,
      "##ft": 1605,
      "po": 1606,
      "##ise": 1607,
      "##ne": 1608,
      "##elf": 1609,
      "way": 1610,
      "ve": 1611,
      "back": 1612,
      "As": 1613,
      "He": 1614,
      "##ict": 1615,
      "##ices": 1616,
      "##pr": 1617,
      "##bs": 1618,
      "supp": 1619,
      "##ew": 1620,
      "##ities": 1621,
      "##old": 1622,
      "after": 1623,
      "ro": 1624,
      "##ract": 1625,
      "dec": 1626,
      "##lect": 1627,
      "reg": 1628,
      "19": 1629,
      "##amp": 1630,
      "##ange": 1631,
      "years": 1632,
      "own": 1633,
      "##any": 1634,
      "##les": 1635,
      "##ife": 1636,
      "many": 1637,
      "even": 1638,
      ").": 1639,
      "##ific": 1640,
      "could": 1641,
      "good": 1642,
      "##ject": 1643,
      "##hen": 1644,
      "##oy": 1645,
      "play": 1646,
      "##xt": 1647,
      "inv": 1648,
      "##erm": 1649,
      "str": 1650,
      "find": 1651,
      "sy": 1652,
      "where": 1653,
      "great": 1654,
      "##cess": 1655,
      "##iew": 1656,
      "should": 1657,
      "rem": 1658,
      "##fore": 1659,
      "##ible": 1660,
      "##ower": 1661,
      "##ph": 1662,
      "##erson": 1663,
      "ke": 1664,
      "##ced": 1665,
      "##aw": 1666,
      "##uch": 1667,
      "two": 1668,
      "##row": 1669,
      "then": 1670,
      "##iss": 1671,
      "##pect": 1672,
      "##ks": 1673,
      "Re": 1674,
      "##als": 1675,
      "##urn": 1676,
      "pos": 1677,
      "differ": 1678,
      "##ert": 1679,
      "gu": 1680,
      "##ased": 1681,
      "##ational": 1682,
      "down": 1683,
      "sm": 1684,
      "##we": 1685,
      "now": 1686,
      "##aking": 1687,
      "##oth": 1688,
      "##ular": 1689,
      "##ting": 1690,
      "##iness": 1691,
      "##ily": 1692,
      "stud": 1693,
      "##ove": 1694,
      "id": 1695,
      "because": 1696,
      "##ics": 1697,
      "start": 1698,
      "##ures": 1699,
      "##olog": 1700,
      "Un": 1701,
      "car": 1702,
      "best": 1703,
      "don": 1704,
      "##ility": 1705,
      "eff": 1706,
      "ac": 1707,
      "bus": 1708,
      "set": 1709,
      "day": 1710,
      "##nds": 1711,
      "##its": 1712,
      "##ts": 1713,
      "cr": 1714,
      "##get": 1715,
      "##hip": 1716,
      "right": 1717,
      "##ool": 1718,
      "dr": 1719,
      "high": 1720,
      "##ward": 1721,
      "fin": 1722,
      "long": 1723,
      "ins": 1724,
      "home": 1725,
      "loc": 1726,
      "gen": 1727,
      "##day": 1728,
      "much": 1729,
      "fl": 1730,
      "##uring": 1731,
      "inst": 1732,
      "##velop": 1733,
      "br": 1734,
      "ass": 1735,
      "mon": 1736,
      "che": 1737,
      "##led": 1738,
      "##ath": 1739,
      "And": 1740,
      "att": 1741,
      "such": 1742,
      "made": 1743,
      "inform": 1744,
      "said": 1745,
      "think": 1746,
      "requ": 1747,
      "experi": 1748,
      "An": 1749,
      "did": 1750,
      "take": 1751,
      "##omet": 1752,
      "##hes": 1753,
      "read": 1754,
      "##ustom": 1755,
      "##ty": 1756,
      "person": 1757,
      "##tern": 1758,
      "too": 1759,
      "show": 1760,
      "product": 1761,
      "world": 1762,
      "##ys": 1763,
      "min": 1764,
      "sec": 1765,
      "im": 1766,
      "##ble": 1767,
      "Com": 1768,
      "life": 1769,
      "av": 1770,
      "sur": 1771,
      "used": 1772,
      "Fr": 1773,
      "For": 1774,
      "##stem": 1775,
      "##other": 1776,
      "Se": 1777,
      "mark": 1778,
      "##ative": 1779,
      "design": 1780,
      "call": 1781,
      "##ss": 1782,
      "##ually": 1783,
      "does": 1784,
      "##alth": 1785,
      "being": 1786,
      "##gan": 1787,
      "bel": 1788,
      "There": 1789,
      "him": 1790,
      "##port": 1791,
      "##ited": 1792,
      "So": 1793,
      "those": 1794,
      "before": 1795,
      "##line": 1796,
      "sim": 1797,
      "##ives": 1798,
      "##ork": 1799,
      "end": 1800,
      "business": 1801,
      "wr": 1802,
      "dat": 1803,
      "different": 1804,
      "##cy": 1805,
      "again": 1806,
      "free": 1807,
      "develop": 1808,
      "provid": 1809,
      "book": 1810,
      "Pro": 1811,
      "feel": 1812,
      "med": 1813,
      "##ont": 1814,
      "##ets": 1815,
      "But": 1816,
      "pres": 1817,
      "##io": 1818,
      "fam": 1819,
      "custom": 1820,
      "##way": 1821,
      "real": 1822,
      "cre": 1823,
      "##ix": 1824,
      "),": 1825,
      "##ull": 1826,
      "art": 1827,
      "##ently": 1828,
      "De": 1829,
      "each": 1830,
      "sk": 1831,
      "##gram": 1832,
      "##ner": 1833,
      "vis": 1834,
      "det": 1835,
      "mod": 1836,
      "here": 1837,
      "gr": 1838,
      "##der": 1839,
      "##ivers": 1840,
      "information": 1841,
      "##end": 1842,
      "form": 1843,
      "##chool": 1844,
      "num": 1845,
      "##akes": 1846,
      "##ason": 1847,
      "comple": 1848,
      "##ven": 1849,
      "mem": 1850,
      "##ek": 1851,
      "somet": 1852,
      "##ved": 1853,
      "around": 1854,
      "##alk": 1855,
      "really": 1856,
      "while": 1857,
      "last": 1858,
      "##chn": 1859,
      "##urr": 1860,
      "##ier": 1861,
      "##read": 1862,
      "##ues": 1863,
      "adv": 1864,
      "##ince": 1865,
      "system": 1866,
      "post": 1867,
      "##az": 1868,
      "disc": 1869,
      "##ax": 1870,
      "10": 1871,
      "op": 1872,
      "care": 1873,
      "ret": 1874,
      "sub": 1875,
      "##ever": 1876,
      "child": 1877,
      "bo": 1878,
      "eas": 1879,
      "##arm": 1880,
      "##air": 1881,
      "##ather": 1882,
      "though": 1883,
      "##und": 1884,
      "##ash": 1885,
      "##iving": 1886,
      "##ene": 1887,
      "##ank": 1888,
      "##ving": 1889,
      "fol": 1890,
      "##cept": 1891,
      "love": 1892,
      "##ines": 1893,
      "lead": 1894,
      "##ize": 1895,
      "cour": 1896,
      "process": 1897,
      "place": 1898,
      "met": 1899,
      "##atch": 1900,
      "still": 1901,
      "ear": 1902,
      "##ness": 1903,
      "exp": 1904,
      "em": 1905,
      "##ple": 1906,
      "Be": 1907,
      "##rib": 1908,
      "commun": 1909,
      "aut": 1910,
      "##ouse": 1911,
      "support": 1912,
      "cle": 1913,
      "going": 1914,
      "Ar": 1915,
      "They": 1916,
      "trans": 1917,
      "How": 1918,
      "things": 1919,
      "On": 1920,
      "##ale": 1921,
      "same": 1922,
      "##gg": 1923,
      "count": 1924,
      "##ways": 1925,
      "Cl": 1926,
      "##ves": 1927,
      "##ional": 1928,
      "##ages": 1929,
      "lot": 1930,
      "prof": 1931,
      "list": 1932,
      "few": 1933,
      "##ality": 1934,
      "sign": 1935,
      "var": 1936,
      "New": 1937,
      "hear": 1938,
      "##ining": 1939,
      "def": 1940,
      "##ng": 1941,
      "pol": 1942,
      "##ween": 1943,
      "##ock": 1944,
      "lear": 1945,
      "hand": 1946,
      "ide": 1947,
      "team": 1948,
      "fun": 1949,
      "program": 1950,
      "cor": 1951,
      "happ": 1952,
      "char": 1953,
      "##ten": 1954,
      "both": 1955,
      "lar": 1956,
      "Sh": 1957,
      "company": 1958,
      "##ittle": 1959,
      "emp": 1960,
      "##ety": 1961,
      "between": 1962,
      "##irect": 1963,
      "import": 1964,
      "##land": 1965,
      "##olut": 1966,
      "avail": 1967,
      "##up": 1968,
      "##ying": 1969,
      "gener": 1970,
      "##ave": 1971,
      "She": 1972,
      "del": 1973,
      "##rol": 1974,
      "month": 1975,
      "plan": 1976,
      "run": 1977,
      "found": 1978,
      "data": 1979,
      "##ior": 1980,
      "##ient": 1981,
      "##ublic": 1982,
      "When": 1983,
      "##ider": 1984,
      "ext": 1985,
      "Pr": 1986,
      "keep": 1987,
      "##lease": 1988,
      "offer": 1989,
      "##roup": 1990,
      "##ars": 1991,
      "val": 1992,
      "cent": 1993,
      "ll": 1994,
      "Amer": 1995,
      "techn": 1996,
      "experience": 1997,
      "top": 1998,
      "##oun": 1999,
      "opt": 2000,
      "follow": 2001,
      "pat": 2002,
      "point": 2003,
      "Americ": 2004,
      "##ident": 2005,
      "health": 2006,
      "Le": 2007,
      "##iting": 2008,
      "pur": 2009,
      "##ins": 2010,
      "market": 2011,
      "using": 2012,
      "##ok": 2013,
      "little": 2014,
      "main": 2015,
      "##iel": 2016,
      "##ters": 2017,
      "##ology": 2018,
      "##thing": 2019,
      "interest": 2020,
      "available": 2021,
      "always": 2022,
      "##ized": 2023,
      "appro": 2024,
      "##ists": 2025,
      "fact": 2026,
      "ent": 2027,
      "red": 2028,
      "200": 2029,
      "##loy": 2030,
      "##ling": 2031,
      "##view": 2032,
      "##eng": 2033,
      "including": 2034,
      "##ody": 2035,
      "frie": 2036,
      "ty": 2037,
      "##ital": 2038,
      "incre": 2039,
      "come": 2040,
      "project": 2041,
      "poss": 2042,
      "give": 2043,
      "something": 2044,
      "effect": 2045,
      "##ric": 2046,
      "week": 2047,
      "must": 2048,
      "put": 2049,
      "build": 2050,
      "result": 2051,
      "dist": 2052,
      "class": 2053,
      "exc": 2054,
      "old": 2055,
      "##ames": 2056,
      "ob": 2057,
      "##ern": 2058,
      "sl": 2059,
      "inf": 2060,
      "three": 2061,
      "organ": 2062,
      "##ically": 2063,
      "let": 2064,
      "##orn": 2065,
      "proper": 2066,
      "perform": 2067,
      "service": 2068,
      "##self": 2069,
      "Ad": 2070,
      "##ants": 2071,
      "cond": 2072,
      "big": 2073,
      "##ren": 2074,
      "##stand": 2075,
      "allow": 2076,
      "without": 2077,
      "able": 2078,
      "At": 2079,
      "say": 2080,
      "##atur": 2081,
      "stand": 2082,
      "##ute": 2083,
      "##els": 2084,
      "##uss": 2085,
      "##ients": 2086,
      "conf": 2087,
      "level": 2088,
      "during": 2089,
      "rest": 2090,
      "##ired": 2091,
      "##aut": 2092,
      "##ature": 2093,
      "sure": 2094,
      "All": 2095,
      "small": 2096,
      "based": 2097,
      "contin": 2098,
      "partic": 2099,
      "number": 2100,
      "Ind": 2101,
      "##ism": 2102,
      "power": 2103,
      "webs": 2104,
      "open": 2105,
      "better": 2106,
      "##over": 2107,
      "oper": 2108,
      "school": 2109,
      "##iqu": 2110,
      "##gy": 2111,
      "online": 2112,
      "important": 2113,
      "To": 2114,
      "water": 2115,
      "pass": 2116,
      "iss": 2117,
      "Br": 2118,
      "grow": 2119,
      "##ined": 2120,
      "##arr": 2121,
      "provide": 2122,
      "##earch": 2123,
      "With": 2124,
      "pay": 2125,
      "##ah": 2126,
      "conc": 2127,
      "##less": 2128,
      "another": 2129,
      "##ton": 2130,
      "##bers": 2131,
      "gl": 2132,
      "est": 2133,
      "par": 2134,
      "pop": 2135,
      "term": 2136,
      "##ention": 2137,
      "##blem": 2138,
      "resp": 2139,
      "##ately": 2140,
      "##ruct": 2141,
      "Te": 2142,
      "fil": 2143,
      "next": 2144,
      "opp": 2145,
      "##con": 2146,
      "##ense": 2147,
      "##ished": 2148,
      "order": 2149,
      "intern": 2150,
      "spec": 2151,
      "ref": 2152,
      "rece": 2153,
      "##arch": 2154,
      "never": 2155,
      "Ex": 2156,
      "##red": 2157,
      "##duc": 2158,
      "curr": 2159,
      "##uck": 2160,
      "##ross": 2161,
      "mat": 2162,
      "test": 2163,
      "##raph": 2164,
      "What": 2165,
      "mov": 2166,
      "hard": 2167,
      "change": 2168,
      "head": 2169,
      "phot": 2170,
      "sit": 2171,
      "since": 2172,
      "##ug": 2173,
      "##joy": 2174,
      "group": 2175,
      "within": 2176,
      "cost": 2177,
      "direct": 2178,
      "problem": 2179,
      "bra": 2180,
      "##ope": 2181,
      "Tr": 2182,
      "got": 2183,
      "mus": 2184,
      "site": 2185,
      "##ustr": 2186,
      "services": 2187,
      "might": 2188,
      "unt": 2189,
      "##ccess": 2190,
      "Pl": 2191,
      "wom": 2192,
      "##ware": 2193,
      "##ision": 2194,
      "##ield": 2195,
      "##ortun": 2196,
      "##ences": 2197,
      "Chr": 2198,
      "prom": 2199,
      "cert": 2200,
      "looking": 2201,
      "family": 2202,
      "state": 2203,
      "full": 2204,
      "##work": 2205,
      "##ency": 2206,
      "bro": 2207,
      "quest": 2208,
      "less": 2209,
      "##man": 2210,
      "pract": 2211,
      "report": 2212,
      "game": 2213,
      "law": 2214,
      "##ee": 2215,
      "##erv": 2216,
      "##ivid": 2217,
      "##par": 2218,
      "equ": 2219,
      "working": 2220,
      "job": 2221,
      "##iversity": 2222,
      "..": 2223,
      "el": 2224,
      "past": 2225,
      "dem": 2226,
      "meet": 2227,
      "##ron": 2228,
      "area": 2229,
      "##ipp": 2230,
      "second": 2231,
      "##oot": 2232,
      "products": 2233,
      "##tain": 2234,
      "##load": 2235,
      "special": 2236,
      "##agement": 2237,
      "employ": 2238,
      "quality": 2239,
      "Our": 2240,
      "##ina": 2241,
      "##ime": 2242,
      "enjoy": 2243,
      "##irl": 2244,
      "12": 2245,
      "impro": 2246,
      "access": 2247,
      "invest": 2248,
      "##oney": 2249,
      "away": 2250,
      "hot": 2251,
      "##omm": 2252,
      "addition": 2253,
      "##iven": 2254,
      "consider": 2255,
      "website": 2256,
      "days": 2257,
      "##ted": 2258,
      "##ards": 2259,
      "fac": 2260,
      "es": 2261,
      "understand": 2262,
      "##ney": 2263,
      "expl": 2264,
      "aff": 2265,
      "making": 2266,
      "##ours": 2267,
      "##ium": 2268,
      "ask": 2269,
      "##aj": 2270,
      "prev": 2271,
      "bas": 2272,
      "##por": 2273,
      "##nect": 2274,
      "prot": 2275,
      "eng": 2276,
      "hum": 2277,
      "Is": 2278,
      "##reen": 2279,
      "dep": 2280,
      "profess": 2281,
      "##ills": 2282,
      "cap": 2283,
      "why": 2284,
      "until": 2285,
      "My": 2286,
      "saf": 2287,
      "local": 2288,
      "##uro": 2289,
      "Con": 2290,
      "These": 2291,
      "15": 2292,
      "##vers": 2293,
      "treat": 2294,
      "turn": 2295,
      "chang": 2296,
      "30": 2297,
      ".\"": 2298,
      "##ator": 2299,
      "belie": 2300,
      "sever": 2301,
      "beh": 2302,
      "seem": 2303,
      "##fect": 2304,
      "##ived": 2305,
      "activ": 2306,
      "di": 2307,
      "leg": 2308,
      "Col": 2309,
      "bre": 2310,
      "view": 2311,
      "##ats": 2312,
      "Sp": 2313,
      "##ales": 2314,
      "applic": 2315,
      "##oh": 2316,
      "Bl": 2317,
      "move": 2318,
      "needs": 2319,
      "children": 2320,
      "success": 2321,
      "check": 2322,
      "cas": 2323,
      "often": 2324,
      "win": 2325,
      "students": 2326,
      "##ised": 2327,
      "##be": 2328,
      "body": 2329,
      "##cu": 2330,
      "##cle": 2331,
      "000": 2332,
      "Ph": 2333,
      "##inal": 2334,
      "##anc": 2335,
      "##ified": 2336,
      "learn": 2337,
      "##here": 2338,
      "##ird": 2339,
      "against": 2340,
      "US": 2341,
      "##ably": 2342,
      "times": 2343,
      "kind": 2344,
      "creat": 2345,
      "sing": 2346,
      "##ocus": 2347,
      "##nding": 2348,
      "house": 2349,
      "today": 2350,
      "night": 2351,
      "public": 2352,
      "##itions": 2353,
      "ca": 2354,
      "##ll": 2355,
      "##oss": 2356,
      "That": 2357,
      "beg": 2358,
      "present": 2359,
      "control": 2360,
      "personal": 2361,
      "Christ": 2362,
      "##ination": 2363,
      "##ids": 2364,
      "along": 2365,
      "food": 2366,
      "##rap": 2367,
      "##ember": 2368,
      "room": 2369,
      "light": 2370,
      "thing": 2371,
      "##ential": 2372,
      "##ump": 2373,
      "enough": 2374,
      "##ains": 2375,
      "##ising": 2376,
      "##ote": 2377,
      "having": 2378,
      "individ": 2379,
      "mind": 2380,
      "##ability": 2381,
      "##ream": 2382,
      "##ission": 2383,
      "course": 2384,
      "##ger": 2385,
      "18": 2386,
      "Res": 2387,
      "##ample": 2388,
      "vide": 2389,
      "detail": 2390,
      "##br": 2391,
      "near": 2392,
      "##ization": 2393,
      "focus": 2394,
      "ann": 2395,
      "##let": 2396,
      "const": 2397,
      "sex": 2398,
      "bene": 2399,
      "##lection": 2400,
      "word": 2401,
      "possible": 2402,
      "money": 2403,
      "tre": 2404,
      "##me": 2405,
      "mill": 2406,
      "gover": 2407,
      "perfect": 2408,
      "##ively": 2409,
      "non": 2410,
      "##side": 2411,
      "##ged": 2412,
      "expect": 2413,
      "record": 2414,
      "account": 2415,
      "cou": 2416,
      "easy": 2417,
      "ed": 2418,
      "side": 2419,
      "arr": 2420,
      "large": 2421,
      "bit": 2422,
      "case": 2423,
      "##orts": 2424,
      "##ots": 2425,
      "cover": 2426,
      "left": 2427,
      "##aterial": 2428,
      "Me": 2429,
      "##osed": 2430,
      "quick": 2431,
      "God": 2432,
      "makes": 2433,
      "event": 2434,
      "toget": 2435,
      "connect": 2436,
      "Comm": 2437,
      "together": 2438,
      "become": 2439,
      "comes": 2440,
      "individual": 2441,
      "##sel": 2442,
      "##ories": 2443,
      "govern": 2444,
      "occ": 2445,
      "##ino": 2446,
      "educ": 2447,
      "fav": 2448,
      "##lement": 2449,
      "##soci": 2450,
      "Am": 2451,
      "##outh": 2452,
      "once": 2453,
      "Can": 2454,
      "##ustry": 2455,
      "Or": 2456,
      "sw": 2457,
      "air": 2458,
      "ever": 2459,
      "pain": 2460,
      "elect": 2461,
      "line": 2462,
      "##hor": 2463,
      "others": 2464,
      "vari": 2465,
      "After": 2466,
      "hist": 2467,
      "pot": 2468,
      "##room": 2469,
      "##ips": 2470,
      "community": 2471,
      "gra": 2472,
      "##ume": 2473,
      "certain": 2474,
      "done": 2475,
      "doing": 2476,
      "means": 2477,
      "create": 2478,
      "##cent": 2479,
      "##ored": 2480,
      "research": 2481,
      "tell": 2482,
      "##ither": 2483,
      "dev": 2484,
      "##oint": 2485,
      "several": 2486,
      "##med": 2487,
      "##ready": 2488,
      "specific": 2489,
      ",”": 2490,
      "11": 2491,
      "training": 2492,
      "benef": 2493,
      "##ape": 2494,
      "protect": 2495,
      "members": 2496,
      "##ique": 2497,
      "##ared": 2498,
      "##utes": 2499,
      "##ured": 2500,
      "already": 2501,
      "##ograph": 2502,
      "four": 2503,
      "Sc": 2504,
      "name": 2505,
      "step": 2506,
      "opportun": 2507,
      "mom": 2508,
      "##oice": 2509,
      "visit": 2510,
      "beaut": 2511,
      "works": 2512,
      "Man": 2513,
      "enter": 2514,
      "net": 2515,
      "##vir": 2516,
      "##ret": 2517,
      "##cially": 2518,
      "One": 2519,
      "##oll": 2520,
      "season": 2521,
      "American": 2522,
      "##orth": 2523,
      "sty": 2524,
      "share": 2525,
      "##osp": 2526,
      "country": 2527,
      "social": 2528,
      "buy": 2529,
      "material": 2530,
      "soft": 2531,
      "##olution": 2532,
      "ens": 2533,
      "industry": 2534,
      "Mar": 2535,
      "ey": 2536,
      "##ai": 2537,
      "##uture": 2538,
      "trad": 2539,
      "University": 2540,
      "women": 2541,
      "camp": 2542,
      "pa": 2543,
      "##ister": 2544,
      "##ajor": 2545,
      "Do": 2546,
      "low": 2547,
      "try": 2548,
      "didn": 2549,
      "However": 2550,
      "##edic": 2551,
      "##ann": 2552,
      "rep": 2553,
      "short": 2554,
      "ris": 2555,
      "ste": 2556,
      "##oose": 2557,
      "appear": 2558,
      "##viron": 2559,
      "##ries": 2560,
      "##ode": 2561,
      "##aim": 2562,
      "Co": 2563,
      "sol": 2564,
      "##ateg": 2565,
      "super": 2566,
      "require": 2567,
      "review": 2568,
      "anal": 2569,
      "least": 2570,
      "##augh": 2571,
      "actually": 2572,
      "development": 2573,
      "vers": 2574,
      "##icle": 2575,
      "compan": 2576,
      "dra": 2577,
      "tem": 2578,
      "redu": 2579,
      "##res": 2580,
      "tool": 2581,
      "##rop": 2582,
      "mult": 2583,
      "story": 2584,
      "Euro": 2585,
      "getting": 2586,
      "started": 2587,
      "##rip": 2588,
      "##itive": 2589,
      "##ands": 2590,
      "contact": 2591,
      "whole": 2592,
      "called": 2593,
      "la": 2594,
      "return": 2595,
      "Ne": 2596,
      "page": 2597,
      "##com": 2598,
      "##ides": 2599,
      "Cent": 2600,
      "talk": 2601,
      "##ury": 2602,
      "##ones": 2603,
      "black": 2604,
      "##ane": 2605,
      "##aster": 2606,
      "##ott": 2607,
      "##uff": 2608,
      "orig": 2609,
      "##att": 2610,
      "##ley": 2611,
      "live": 2612,
      "space": 2613,
      "bring": 2614,
      "far": 2615,
      "##ances": 2616,
      "clean": 2617,
      "##conom": 2618,
      "lik": 2619,
      "##atic": 2620,
      "##itical": 2621,
      "cult": 2622,
      "##urther": 2623,
      "search": 2624,
      "fre": 2625,
      "##lish": 2626,
      "repr": 2627,
      "months": 2628,
      "hig": 2629,
      "##ording": 2630,
      "deal": 2631,
      "clear": 2632,
      "men": 2633,
      "##ners": 2634,
      "##iter": 2635,
      "include": 2636,
      "##wards": 2637,
      "typ": 2638,
      "##alf": 2639,
      "##iate": 2640,
      "##ec": 2641,
      "reason": 2642,
      "...": 2643,
      "##atures": 2644,
      "##urs": 2645,
      "##istr": 2646,
      "##AN": 2647,
      "##aces": 2648,
      "ident": 2649,
      "charact": 2650,
      "future": 2651,
      "major": 2652,
      "range": 2653,
      "##tend": 2654,
      "stay": 2655,
      "known": 2656,
      "comb": 2657,
      "##ify": 2658,
      "environ": 2659,
      "Inst": 2660,
      "customer": 2661,
      "particular": 2662,
      "self": 2663,
      "heart": 2664,
      "##enn": 2665,
      "music": 2666,
      "companies": 2667,
      "100": 2668,
      "thought": 2669,
      "et": 2670,
      "girl": 2671,
      "hold": 2672,
      "##hod": 2673,
      "##ians": 2674,
      "Intern": 2675,
      "No": 2676,
      "friends": 2677,
      "mag": 2678,
      "##aff": 2679,
      "mean": 2680,
      "management": 2681,
      "May": 2682,
      "##ering": 2683,
      "face": 2684,
      "##ches": 2685,
      "rele": 2686,
      "sum": 2687,
      "among": 2688,
      "improve": 2689,
      "repres": 2690,
      "download": 2691,
      "mil": 2692,
      "relations": 2693,
      "##elt": 2694,
      "chall": 2695,
      "##aps": 2696,
      "across": 2697,
      "##idence": 2698,
      "priv": 2699,
      "press": 2700,
      "compet": 2701,
      "##app": 2702,
      "##illed": 2703,
      "example": 2704,
      "Car": 2705,
      "##eral": 2706,
      "young": 2707,
      "##imes": 2708,
      "someone": 2709,
      "link": 2710,
      "wa": 2711,
      "adm": 2712,
      "early": 2713,
      "App": 2714,
      "##ution": 2715,
      "invol": 2716,
      "##ER": 2717,
      "value": 2718,
      "friend": 2719,
      "field": 2720,
      "##sw": 2721,
      "##ush": 2722,
      "##ental": 2723,
      "##ilt": 2724,
      "##ilities": 2725,
      "##pend": 2726,
      "##fact": 2727,
      "##selves": 2728,
      ".,": 2729,
      "25": 2730,
      "contract": 2731,
      "hours": 2732,
      "##ift": 2733,
      "Su": 2734,
      "offic": 2735,
      ",\"": 2736,
      "Rep": 2737,
      "##ites": 2738,
      "##bo": 2739,
      "Dr": 2740,
      "Eng": 2741,
      "cut": 2742,
      "##ference": 2743,
      "government": 2744,
      "lim": 2745,
      "##ained": 2746,
      "track": 2747,
      "everything": 2748,
      "##ows": 2749,
      "issues": 2750,
      "begin": 2751,
      "fail": 2752,
      "pack": 2753,
      "##ulation": 2754,
      "seen": 2755,
      "ener": 2756,
      "Comp": 2757,
      "ce": 2758,
      "prob": 2759,
      "property": 2760,
      "sell": 2761,
      "yet": 2762,
      "ant": 2763,
      "offers": 2764,
      "cred": 2765,
      "##idd": 2766,
      "##pecially": 2767,
      "doesn": 2768,
      "idea": 2769,
      "city": 2770,
      "given": 2771,
      "##iod": 2772,
      "##esh": 2773,
      "author": 2774,
      "price": 2775,
      "customers": 2776,
      "happen": 2777,
      "wond": 2778,
      "##most": 2779,
      "##lock": 2780,
      "##aving": 2781,
      "log": 2782,
      "below": 2783,
      "##ript": 2784,
      "either": 2785,
      "wanted": 2786,
      "While": 2787,
      "strong": 2788,
      "50": 2789,
      "##though": 2790,
      "email": 2791,
      "##irt": 2792,
      "road": 2793,
      "enc": 2794,
      "please": 2795,
      "##ilar": 2796,
      "##unch": 2797,
      "##ledge": 2798,
      "13": 2799,
      "natur": 2800,
      "##fully": 2801,
      "human": 2802,
      "##cing": 2803,
      "##oring": 2804,
      "##aken": 2805,
      "Your": 2806,
      "games": 2807,
      "##ched": 2808,
      "##hers": 2809,
      "environment": 2810,
      "vol": 2811,
      "mess": 2812,
      "##ases": 2813,
      "##ensive": 2814,
      "key": 2815,
      "million": 2816,
      "tour": 2817,
      "video": 2818,
      "five": 2819,
      "pie": 2820,
      "##gest": 2821,
      "##lege": 2822,
      "current": 2823,
      "2018": 2824,
      "various": 2825,
      "--": 2826,
      "walk": 2827,
      "##iful": 2828,
      "upd": 2829,
      "Now": 2830,
      "taking": 2831,
      "Tra": 2832,
      "cra": 2833,
      "hope": 2834,
      "##ke": 2835,
      "anything": 2836,
      "common": 2837,
      "discuss": 2838,
      "Europe": 2839,
      "Gu": 2840,
      "Some": 2841,
      "econom": 2842,
      "##ding": 2843,
      "manag": 2844,
      "news": 2845,
      "minutes": 2846,
      "##une": 2847,
      "whether": 2848,
      "desc": 2849,
      "Not": 2850,
      "tot": 2851,
      "single": 2852,
      "relationship": 2853,
      "cal": 2854,
      "host": 2855,
      "##ony": 2856,
      "##imate": 2857,
      "##acy": 2858,
      "16": 2859,
      "bad": 2860,
      "cook": 2861,
      "went": 2862,
      "dam": 2863,
      "##reet": 2864,
      "##isc": 2865,
      "##ises": 2866,
      "##artment": 2867,
      "Fl": 2868,
      "##son": 2869,
      "##ources": 2870,
      "especially": 2871,
      "age": 2872,
      "fall": 2873,
      "pick": 2874,
      "##ural": 2875,
      "Che": 2876,
      "fund": 2877,
      "watch": 2878,
      "##ogn": 2879,
      "bar": 2880,
      "later": 2881,
      "amount": 2882,
      "address": 2883,
      "method": 2884,
      "came": 2885,
      "##ead": 2886,
      "##icult": 2887,
      "won": 2888,
      "claim": 2889,
      "energy": 2890,
      "##opp": 2891,
      "##fort": 2892,
      "needed": 2893,
      "results": 2894,
      "Fe": 2895,
      "says": 2896,
      "install": 2897,
      "##ommend": 2898,
      "ways": 2899,
      "docu": 2900,
      "##ffic": 2901,
      "took": 2902,
      "mach": 2903,
      "pict": 2904,
      "sound": 2905,
      "##lished": 2906,
      "##uly": 2907,
      "##uge": 2908,
      "##itted": 2909,
      "ap": 2910,
      "complete": 2911,
      "options": 2912,
      "professional": 2913,
      "due": 2914,
      "period": 2915,
      "inde": 2916,
      "##ggest": 2917,
      "purch": 2918,
      "performance": 2919,
      "respons": 2920,
      "choose": 2921,
      "favor": 2922,
      "mor": 2923,
      "##ler": 2924,
      "following": 2925,
      "type": 2926,
      "further": 2927,
      "##mber": 2928,
      "hair": 2929,
      "represent": 2930,
      "##ply": 2931,
      "stat": 2932,
      "##ohn": 2933,
      "##ided": 2934,
      "##chie": 2935,
      "areas": 2936,
      "above": 2937,
      "simple": 2938,
      "hy": 2939,
      "living": 2940,
      "##iday": 2941,
      "break": 2942,
      "##ral": 2943,
      "##lus": 2944,
      "answ": 2945,
      "##ung": 2946,
      "Med": 2947,
      "##ival": 2948,
      "select": 2949,
      "yourself": 2950,
      "everyone": 2951,
      "diff": 2952,
      "signific": 2953,
      "By": 2954,
      "stop": 2955,
      "199": 2956,
      "wind": 2957,
      "##omes": 2958,
      "clos": 2959,
      "building": 2960,
      "lat": 2961,
      "##IN": 2962,
      "party": 2963,
      "##uation": 2964,
      "##AS": 2965,
      "increase": 2966,
      "##ges": 2967,
      "##asing": 2968,
      "media": 2969,
      "sn": 2970,
      "##by": 2971,
      "recommend": 2972,
      "Wor": 2973,
      "##ctor": 2974,
      "web": 2975,
      "suggest": 2976,
      "14": 2977,
      "24": 2978,
      "flo": 2979,
      "sent": 2980,
      "white": 2981,
      "##ples": 2982,
      "risk": 2983,
      "Des": 2984,
      "repl": 2985,
      "soon": 2986,
      "Part": 2987,
      "stock": 2988,
      "almost": 2989,
      "provides": 2990,
      "ideas": 2991,
      "Cont": 2992,
      "##ource": 2993,
      "From": 2994,
      "##ights": 2995,
      "port": 2996,
      "##af": 2997,
      "##book": 2998,
      "exam": 2999,
      "##ief": 3000,
      "trying": 3001,
      "##iously": 3002,
      "required": 3003,
      "popular": 3004,
      "questions": 3005,
      "En": 3006,
      "learning": 3007,
      "film": 3008,
      "beautiful": 3009,
      "##oon": 3010,
      "##ES": 3011,
      "technology": 3012,
      "##bal": 3013,
      "percent": 3014,
      "17": 3015,
      "rout": 3016,
      "sci": 3017,
      "##arget": 3018,
      "comput": 3019,
      "##ibility": 3020,
      "United": 3021,
      "card": 3022,
      "##OM": 3023,
      "item": 3024,
      "exist": 3025,
      "collect": 3026,
      "phys": 3027,
      "sle": 3028,
      "##icy": 3029,
      "front": 3030,
      "close": 3031,
      "quite": 3032,
      "ensure": 3033,
      "else": 3034,
      "believe": 3035,
      "etc": 3036,
      "##aching": 3037,
      "problems": 3038,
      "Ro": 3039,
      "##ued": 3040,
      "request": 3041,
      "fire": 3042,
      "determ": 3043,
      "entire": 3044,
      "##ength": 3045,
      "##mb": 3046,
      "necess": 3047,
      "assist": 3048,
      "growth": 3049,
      "natural": 3050,
      "dig": 3051,
      "##ster": 3052,
      "##vert": 3053,
      "unique": 3054,
      "Sy": 3055,
      "aud": 3056,
      "ele": 3057,
      "usually": 3058,
      "knowledge": 3059,
      "consum": 3060,
      "designed": 3061,
      "education": 3062,
      "##iet": 3063,
      "##AT": 3064,
      "##lex": 3065,
      "meas": 3066,
      "##itional": 3067,
      "accept": 3068,
      "rather": 3069,
      "##aring": 3070,
      "forward": 3071,
      "travel": 3072,
      "blog": 3073,
      "infl": 3074,
      "achie": 3075,
      "bed": 3076,
      "third": 3077,
      "box": 3078,
      "treatment": 3079,
      "wonder": 3080,
      "half": 3081,
      "lives": 3082,
      "##ging": 3083,
      "history": 3084,
      "style": 3085,
      "foot": 3086,
      "features": 3087,
      "practice": 3088,
      "size": 3089,
      "##not": 3090,
      "##anced": 3091,
      "skin": 3092,
      "Mc": 3093,
      "jour": 3094,
      "outside": 3095,
      "ess": 3096,
      "##ufact": 3097,
      "##rown": 3098,
      "land": 3099,
      "pan": 3100,
      "series": 3101,
      "position": 3102,
      "takes": 3103,
      "##gress": 3104,
      "##urity": 3105,
      "##cious": 3106,
      "content": 3107,
      "cir": 3108,
      "fit": 3109,
      "tax": 3110,
      "##lebr": 3111,
      "##urch": 3112,
      "abs": 3113,
      "question": 3114,
      "date": 3115,
      "park": 3116,
      "associ": 3117,
      "text": 3118,
      "related": 3119,
      "ra": 3120,
      "however": 3121,
      "hon": 3122,
      "##uct": 3123,
      "##ma": 3124,
      "##rodu": 3125,
      "anim": 3126,
      "clients": 3127,
      "Gr": 3128,
      "##gle": 3129,
      "##ison": 3130,
      "Cal": 3131,
      "insp": 3132,
      "network": 3133,
      "Qu": 3134,
      "##li": 3135,
      "##ball": 3136,
      "init": 3137,
      "office": 3138,
      "includes": 3139,
      "difficult": 3140,
      "Ge": 3141,
      "flow": 3142,
      "similar": 3143,
      "##azing": 3144,
      "aw": 3145,
      "mot": 3146,
      "##abor": 3147,
      "ago": 3148,
      "##ruction": 3149,
      "pret": 3150,
      "color": 3151,
      "happy": 3152,
      "details": 3153,
      "dou": 3154,
      "click": 3155,
      "study": 3156,
      "particip": 3157,
      "##where": 3158,
      "##ari": 3159,
      "John": 3160,
      "##oid": 3161,
      "##ancial": 3162,
      "##istic": 3163,
      "upon": 3164,
      "Just": 3165,
      "jo": 3166,
      "##yl": 3167,
      "inside": 3168,
      "likely": 3169,
      "sil": 3170,
      "added": 3171,
      "York": 3172,
      "miss": 3173,
      "##use": 3174,
      "##ON": 3175,
      "##ores": 3176,
      "heav": 3177,
      "simply": 3178,
      "couple": 3179,
      "software": 3180,
      "version": 3181,
      "fig": 3182,
      "glo": 3183,
      "oil": 3184,
      "sat": 3185,
      "sens": 3186,
      "##ially": 3187,
      "##rew": 3188,
      "coming": 3189,
      "events": 3190,
      "application": 3191,
      "probably": 3192,
      "Pe": 3193,
      "mob": 3194,
      "drive": 3195,
      "continue": 3196,
      "Jan": 3197,
      "action": 3198,
      "##rect": 3199,
      "deb": 3200,
      "obs": 3201,
      "##ees": 3202,
      "##go": 3203,
      "##verage": 3204,
      "according": 3205,
      "throughout": 3206,
      "famil": 3207,
      "words": 3208,
      "significant": 3209,
      "ful": 3210,
      "##yn": 3211,
      "staff": 3212,
      "agree": 3213,
      "books": 3214,
      "function": 3215,
      "behind": 3216,
      "Will": 3217,
      "pub": 3218,
      "##__": 3219,
      "2017": 3220,
      "communic": 3221,
      "purp": 3222,
      "opportunity": 3223,
      "Mart": 3224,
      "ground": 3225,
      "lay": 3226,
      "deliver": 3227,
      "extra": 3228,
      "India": 3229,
      "Bu": 3230,
      "Count": 3231,
      "##ables": 3232,
      "Sw": 3233,
      "##ered": 3234,
      "deg": 3235,
      "deep": 3236,
      "##aining": 3237,
      "##izing": 3238,
      "provided": 3239,
      "matter": 3240,
      "School": 3241,
      "Serv": 3242,
      "cop": 3243,
      "sales": 3244,
      "medical": 3245,
      "pretty": 3246,
      "er": 3247,
      "taken": 3248,
      "2015": 3249,
      "running": 3250,
      "changes": 3251,
      "quickly": 3252,
      "UK": 3253,
      "town": 3254,
      "##alm": 3255,
      "recogn": 3256,
      "original": 3257,
      "Af": 3258,
      "##gn": 3259,
      "##err": 3260,
      "stra": 3261,
      "caus": 3262,
      "higher": 3263,
      "fast": 3264,
      "comfort": 3265,
      "impact": 3266,
      "40": 3267,
      "round": 3268,
      "target": 3269,
      "anyone": 3270,
      "safe": 3271,
      "potential": 3272,
      "hol": 3273,
      "##ators": 3274,
      "manufact": 3275,
      "longer": 3276,
      "America": 3277,
      "Min": 3278,
      "National": 3279,
      "##ipment": 3280,
      "veh": 3281,
      "conditions": 3282,
      "standard": 3283,
      "##itc": 3284,
      "prepar": 3285,
      "regular": 3286,
      "celebr": 3287,
      "##rem": 3288,
      "##icro": 3289,
      "##ession": 3290,
      "respect": 3291,
      "inte": 3292,
      "##angu": 3293,
      "model": 3294,
      "##sc": 3295,
      "isn": 3296,
      "prop": 3297,
      "expert": 3298,
      "international": 3299,
      "table": 3300,
      "wood": 3301,
      "##erc": 3302,
      "##anks": 3303,
      "parts": 3304,
      "##itten": 3305,
      "198": 3306,
      "points": 3307,
      "estab": 3308,
      "Please": 3309,
      "##gs": 3310,
      "exact": 3311,
      "Reg": 3312,
      "easily": 3313,
      "His": 3314,
      "##ask": 3315,
      "user": 3316,
      "##ibr": 3317,
      "##olutions": 3318,
      "sites": 3319,
      "North": 3320,
      "##eter": 3321,
      "true": 3322,
      "built": 3323,
      "defin": 3324,
      "##edicated": 3325,
      "##aur": 3326,
      "##orr": 3327,
      "speak": 3328,
      "grad": 3329,
      "autom": 3330,
      "##ustral": 3331,
      "paper": 3332,
      "##vent": 3333,
      "credit": 3334,
      "State": 3335,
      "##play": 3336,
      "2016": 3337,
      "ready": 3338,
      "skills": 3339,
      "seems": 3340,
      "Ke": 3341,
      "##ops": 3342,
      "receive": 3343,
      "writing": 3344,
      "war": 3345,
      "##hern": 3346,
      "choice": 3347,
      "leave": 3348,
      "regard": 3349,
      "Here": 3350,
      "norm": 3351,
      "ones": 3352,
      "contrib": 3353,
      "recent": 3354,
      "Pres": 3355,
      "brand": 3356,
      "World": 3357,
      "Per": 3358,
      "base": 3359,
      "cannot": 3360,
      "teac": 3361,
      "systems": 3362,
      "general": 3363,
      "##eks": 3364,
      "##alt": 3365,
      "##astic": 3366,
      "member": 3367,
      "variety": 3368,
      "cur": 3369,
      "rad": 3370,
      "##ules": 3371,
      "##ience": 3372,
      "final": 3373,
      "div": 3374,
      "swe": 3375,
      "##come": 3376,
      "apply": 3377,
      "cool": 3378,
      "blood": 3379,
      "countries": 3380,
      "engine": 3381,
      "safety": 3382,
      ".”": 3383,
      "Tw": 3384,
      "##back": 3385,
      "##alls": 3386,
      "moment": 3387,
      "private": 3388,
      "Pol": 3389,
      "inn": 3390,
      "##iles": 3391,
      "##ams": 3392,
      "##amb": 3393,
      "production": 3394,
      "role": 3395,
      "character": 3396,
      "song": 3397,
      "six": 3398,
      "sense": 3399,
      "##oura": 3400,
      "nothing": 3401,
      "worth": 3402,
      "remember": 3403,
      "shows": 3404,
      "additional": 3405,
      "Gen": 3406,
      "##hold": 3407,
      "##aced": 3408,
      "2019": 3409,
      "recently": 3410,
      "dating": 3411,
      "##oor": 3412,
      "##atter": 3413,
      "##urance": 3414,
      "print": 3415,
      "##ression": 3416,
      "Sec": 3417,
      "affect": 3418,
      "latest": 3419,
      "Us": 3420,
      "##ires": 3421,
      "financial": 3422,
      "Black": 3423,
      "vi": 3424,
      "##RE": 3425,
      "##ude": 3426,
      "themselves": 3427,
      "##ification": 3428,
      "asked": 3429,
      "South": 3430,
      "dom": 3431,
      "mass": 3432,
      "##ming": 3433,
      "neg": 3434,
      "weight": 3435,
      "##iple": 3436,
      "phone": 3437,
      "activities": 3438,
      "##to": 3439,
      "chance": 3440,
      "States": 3441,
      "disp": 3442,
      "tools": 3443,
      "##cer": 3444,
      "##my": 3445,
      "bal": 3446,
      "Then": 3447,
      "##imum": 3448,
      "parents": 3449,
      "total": 3450,
      "Home": 3451,
      "Spe": 3452,
      "cause": 3453,
      "lic": 3454,
      "##edding": 3455,
      "reci": 3456,
      "Inc": 3457,
      "itself": 3458,
      "##gu": 3459,
      "##ama": 3460,
      "##empt": 3461,
      "prim": 3462,
      "speed": 3463,
      "amazing": 3464,
      "effic": 3465,
      "board": 3466,
      "Once": 3467,
      "issue": 3468,
      "Martin": 3469,
      "cell": 3470,
      "kids": 3471,
      "lif": 3472,
      "##face": 3473,
      "sun": 3474,
      "myself": 3475,
      "image": 3476,
      "patients": 3477,
      "effective": 3478,
      "fa": 3479,
      "national": 3480,
      "##rict": 3481,
      "##enced": 3482,
      "told": 3483,
      "##ached": 3484,
      "implement": 3485,
      "casino": 3486,
      "integr": 3487,
      "Don": 3488,
      "dest": 3489,
      "tou": 3490,
      "ut": 3491,
      "users": 3492,
      "projects": 3493,
      "object": 3494,
      "felt": 3495,
      "##hib": 3496,
      "##aves": 3497,
      "2014": 3498,
      "favorite": 3499,
      "Of": 3500,
      "PR": 3501,
      "##ground": 3502,
      "fresh": 3503,
      "##aily": 3504,
      "indic": 3505,
      "decor": 3506,
      "allows": 3507,
      "concern": 3508,
      "received": 3509,
      "Ed": 3510,
      "##itch": 3511,
      "##vey": 3512,
      "store": 3513,
      "##ership": 3514,
      "Dep": 3515,
      "Most": 3516,
      "##icles": 3517,
      "suit": 3518,
      "providing": 3519,
      "created": 3520,
      "complet": 3521,
      "challeng": 3522,
      "Aut": 3523,
      "hands": 3524,
      "plans": 3525,
      "looks": 3526,
      "written": 3527,
      "legal": 3528,
      "Bar": 3529,
      "##lt": 3530,
      "##lier": 3531,
      "##oogle": 3532,
      "currently": 3533,
      "lower": 3534,
      "struct": 3535,
      "except": 3536,
      "##itting": 3537,
      "located": 3538,
      "huge": 3539,
      "##hood": 3540,
      "Since": 3541,
      "average": 3542,
      "coun": 3543,
      "##sy": 3544,
      "##for": 3545,
      "##ana": 3546,
      "appl": 3547,
      "coll": 3548,
      "complex": 3549,
      "approach": 3550,
      "June": 3551,
      "Par": 3552,
      "fill": 3553,
      "ple": 3554,
      "##eal": 3555,
      "##eth": 3556,
      "##irst": 3557,
      "helps": 3558,
      "immed": 3559,
      "Center": 3560,
      "ge": 3561,
      "##urt": 3562,
      "emb": 3563,
      "equipment": 3564,
      "announ": 3565,
      "giving": 3566,
      "tick": 3567,
      "via": 3568,
      "wide": 3569,
      "##etic": 3570,
      "##amed": 3571,
      "decision": 3572,
      "Bo": 3573,
      "late": 3574,
      "held": 3575,
      "Also": 3576,
      "modern": 3577,
      "Ag": 3578,
      "mix": 3579,
      "inj": 3580,
      "subs": 3581,
      "Austral": 3582,
      "Sm": 3583,
      "towards": 3584,
      "prior": 3585,
      "career": 3586,
      "maintain": 3587,
      "##ring": 3588,
      "##AR": 3589,
      "weeks": 3590,
      "partners": 3591,
      "materials": 3592,
      "summer": 3593,
      "mention": 3594,
      "Stud": 3595,
      "location": 3596,
      "court": 3597,
      "Canad": 3598,
      "necessary": 3599,
      "cand": 3600,
      "squ": 3601,
      "##atory": 3602,
      "##aging": 3603,
      "excell": 3604,
      "sleep": 3605,
      "gives": 3606,
      "##ny": 3607,
      "##irit": 3608,
      "##ciety": 3609,
      "worked": 3610,
      "qual": 3611,
      "remov": 3612,
      "Ab": 3613,
      "Oct": 3614,
      "##head": 3615,
      "feed": 3616,
      "firm": 3617,
      "feeling": 3618,
      "##oke": 3619,
      "##ription": 3620,
      "00": 3621,
      "bill": 3622,
      "dru": 3623,
      "##ades": 3624,
      "advert": 3625,
      "##idential": 3626,
      "official": 3627,
      "Apr": 3628,
      "Ser": 3629,
      "cat": 3630,
      "ep": 3631,
      "##ese": 3632,
      "##ests": 3633,
      "playing": 3634,
      "Add": 3635,
      "##istration": 3636,
      "morning": 3637,
      "##ption": 3638,
      "Ste": 3639,
      "article": 3640,
      "##clear": 3641,
      "22": 3642,
      "rate": 3643,
      "slow": 3644,
      "ur": 3645,
      "##uary": 3646,
      "##chan": 3647,
      "aspect": 3648,
      "##anguage": 3649,
      "block": 3650,
      "file": 3651,
      "##ester": 3652,
      "introdu": 3653,
      "players": 3654,
      "reading": 3655,
      "behav": 3656,
      "machine": 3657,
      "Mark": 3658,
      "dress": 3659,
      "##ological": 3660,
      "terms": 3661,
      "Commun": 3662,
      "document": 3663,
      "21": 3664,
      "Cor": 3665,
      "City": 3666,
      "pers": 3667,
      "tit": 3668,
      "##co": 3669,
      "##adem": 3670,
      "##iction": 3671,
      "culture": 3672,
      "Acc": 3673,
      "Germ": 3674,
      "Many": 3675,
      "bank": 3676,
      "mother": 3677,
      "##cil": 3678,
      "##itor": 3679,
      "interested": 3680,
      "types": 3681,
      "##ned": 3682,
      "##mit": 3683,
      "##vant": 3684,
      "spot": 3685,
      "sche": 3686,
      "highly": 3687,
      "benefits": 3688,
      "analys": 3689,
      "##itchen": 3690,
      "bott": 3691,
      "mid": 3692,
      "##val": 3693,
      "##ench": 3694,
      "##ille": 3695,
      "##oph": 3696,
      "saw": 3697,
      "surpr": 3698,
      "center": 3699,
      "Fin": 3700,
      "Google": 3701,
      "hit": 3702,
      "##lim": 3703,
      "##elling": 3704,
      "dise": 3705,
      "Health": 3706,
      "##ospital": 3707,
      "Every": 3708,
      "Mr": 3709,
      "loss": 3710,
      "warm": 3711,
      "##IC": 3712,
      "##oud": 3713,
      "##ament": 3714,
      "goes": 3715,
      "gets": 3716,
      "decided": 3717,
      "##ashion": 3718,
      "meeting": 3719,
      "Even": 3720,
      "fu": 3721,
      "mar": 3722,
      "##OT": 3723,
      "##ceed": 3724,
      "death": 3725,
      "##usb": 3726,
      "expected": 3727,
      "describ": 3728,
      "boy": 3729,
      "tal": 3730,
      "##agn": 3731,
      "commer": 3732,
      "security": 3733,
      "subject": 3734,
      "political": 3735,
      "##ett": 3736,
      "resources": 3737,
      "player": 3738,
      "attention": 3739,
      "Art": 3740,
      "organiz": 3741,
      "Net": 3742,
      "##atives": 3743,
      "##asons": 3744,
      "plat": 3745,
      "sometimes": 3746,
      "discover": 3747,
      "leading": 3748,
      "answer": 3749,
      "partner": 3750,
      "computer": 3751,
      "Off": 3752,
      "dream": 3753,
      "nature": 3754,
      "ren": 3755,
      "##onse": 3756,
      "adult": 3757,
      "sett": 3758,
      "instead": 3759,
      "marketing": 3760,
      "interesting": 3761,
      "draw": 3762,
      "April": 3763,
      "Was": 3764,
      "nice": 3765,
      "##nal": 3766,
      "##ze": 3767,
      "##ening": 3768,
      "ability": 3769,
      "Her": 3770,
      "lost": 3771,
      "solution": 3772,
      "##oe": 3773,
      "Pa": 3774,
      "release": 3775,
      "##ighb": 3776,
      "goal": 3777,
      "moving": 3778,
      "Park": 3779,
      "ten": 3780,
      "##ps": 3781,
      "##hest": 3782,
      "##itute": 3783,
      "##pper": 3784,
      "save": 3785,
      "internet": 3786,
      "woman": 3787,
      "International": 3788,
      "mobile": 3789,
      "35": 3790,
      "green": 3791,
      "##haps": 3792,
      "##idge": 3793,
      "##iring": 3794,
      "##anger": 3795,
      "Prof": 3796,
      "correct": 3797,
      "promot": 3798,
      "eyes": 3799,
      "items": 3800,
      "dark": 3801,
      "daily": 3802,
      "##ata": 3803,
      "##aries": 3804,
      "condition": 3805,
      "Brit": 3806,
      "traditional": 3807,
      "requirements": 3808,
      "encoura": 3809,
      "bud": 3810,
      "##uclear": 3811,
      "##ker": 3812,
      "##20": 3813,
      "arch": 3814,
      "attack": 3815,
      "levels": 3816,
      "County": 3817,
      "##yr": 3818,
      "##itely": 3819,
      "shower": 3820,
      "drink": 3821,
      "thinking": 3822,
      "imm": 3823,
      "costs": 3824,
      "admin": 3825,
      "damage": 3826,
      "!!": 3827,
      "El": 3828,
      "##ux": 3829,
      "##den": 3830,
      "##arter": 3831,
      "reach": 3832,
      "##ought": 3833,
      "strateg": 3834,
      "wrong": 3835,
      "multiple": 3836,
      "Day": 3837,
      "ball": 3838,
      "code": 3839,
      "ht": 3840,
      "hous": 3841,
      "path": 3842,
      "comment": 3843,
      "send": 3844,
      "spend": 3845,
      "Although": 3846,
      "Friday": 3847,
      "increased": 3848,
      "Afric": 3849,
      "##apt": 3850,
      "##ties": 3851,
      "##fr": 3852,
      "##idents": 3853,
      "progress": 3854,
      "train": 3855,
      "##het": 3856,
      "##ctions": 3857,
      "altern": 3858,
      "exerc": 3859,
      "suff": 3860,
      "##umb": 3861,
      "prin": 3862,
      "difference": 3863,
      "assess": 3864,
      "##sych": 3865,
      "bab": 3866,
      "wish": 3867,
      "##gar": 3868,
      "##uth": 3869,
      "##apan": 3870,
      "attempt": 3871,
      "estate": 3872,
      "involved": 3873,
      "##iddle": 3874,
      "Aug": 3875,
      "solutions": 3876,
      "wedding": 3877,
      "##rought": 3878,
      "collection": 3879,
      "finally": 3880,
      "policy": 3881,
      "basic": 3882,
      "individuals": 3883,
      "piece": 3884,
      "First": 3885,
      "bur": 3886,
      "##inary": 3887,
      "ord": 3888,
      "Sept": 3889,
      "medic": 3890,
      "subst": 3891,
      "photo": 3892,
      "Company": 3893,
      "excellent": 3894,
      "ble": 3895,
      "rates": 3896,
      "##ED": 3897,
      "##reg": 3898,
      "load": 3899,
      "played": 3900,
      "write": 3901,
      "frequ": 3902,
      "Act": 3903,
      "##EN": 3904,
      "separ": 3905,
      "##ibly": 3906,
      "display": 3907,
      "growing": 3908,
      "glass": 3909,
      "considered": 3910,
      "Pre": 3911,
      "##oes": 3912,
      "##AM": 3913,
      "##IS": 3914,
      "##pped": 3915,
      "adj": 3916,
      "eye": 3917,
      "Feb": 3918,
      "viol": 3919,
      "High": 3920,
      "stuff": 3921,
      "relig": 3922,
      "included": 3923,
      "starting": 3924,
      "chem": 3925,
      "directly": 3926,
      "creating": 3927,
      "digital": 3928,
      "23": 3929,
      "60": 3930,
      "fem": 3931,
      "ill": 3932,
      "match": 3933,
      "##vis": 3934,
      "##enge": 3935,
      "concept": 3936,
      "##cks": 3937,
      "##ellow": 3938,
      "college": 3939,
      "global": 3940,
      "wel": 3941,
      "##aign": 3942,
      "##lin": 3943,
      "##iately": 3944,
      "##AC": 3945,
      "pred": 3946,
      "trust": 3947,
      "programs": 3948,
      "option": 3949,
      "successful": 3950,
      "reduce": 3951,
      "completely": 3952,
      "Id": 3953,
      "Red": 3954,
      "har": 3955,
      "##dom": 3956,
      "seek": 3957,
      "student": 3958,
      "influ": 3959,
      "innov": 3960,
      "emer": 3961,
      "hour": 3962,
      "sale": 3963,
      "##of": 3964,
      "January": 3965,
      "exactly": 3966,
      "sal": 3967,
      "source": 3968,
      "##mas": 3969,
      "##put": 3970,
      "former": 3971,
      "exec": 3972,
      "heat": 3973,
      "loved": 3974,
      "prefer": 3975,
      "maybe": 3976,
      "rights": 3977,
      "laws": 3978,
      "prevent": 3979,
      "Are": 3980,
      "Lond": 3981,
      "Well": 3982,
      "##ober": 3983,
      "##irth": 3984,
      "attend": 3985,
      "neighb": 3986,
      "attract": 3987,
      "response": 3988,
      "wait": 3989,
      "English": 3990,
      "gold": 3991,
      "”.": 3992,
      "##uate": 3993,
      "##aged": 3994,
      "2013": 3995,
      "positive": 3996,
      "healthy": 3997,
      "understanding": 3998,
      "cases": 3999,
      "achieve": 4000,
      "award": 4001,
      "##ole": 4002,
      "##ule": 4003,
      "##zy": 4004,
      "section": 4005,
      "planning": 4006,
      "pattern": 4007,
      "demand": 4008,
      "London": 4009,
      "Cons": 4010,
      "Dis": 4011,
      "bath": 4012,
      "eat": 4013,
      "fight": 4014,
      "##str": 4015,
      "Any": 4016,
      "organization": 4017,
      "previous": 4018,
      "platform": 4019,
      "Gl": 4020,
      "Japan": 4021,
      "tast": 4022,
      "##OR": 4023,
      "##amer": 4024,
      "spent": 4025,
      "evidence": 4026,
      "##ords": 4027,
      "guid": 4028,
      "guide": 4029,
      "Island": 4030,
      "applications": 4031,
      "House": 4032,
      "fine": 4033,
      "sold": 4034,
      "wasn": 4035,
      "##antly": 4036,
      "##ocr": 4037,
      "heard": 4038,
      "appropr": 4039,
      "groups": 4040,
      "err": 4041,
      "Let": 4042,
      "TH": 4043,
      "##ida": 4044,
      "##oof": 4045,
      "##izes": 4046,
      "feature": 4047,
      "advant": 4048,
      "corpor": 4049,
      "purpose": 4050,
      "October": 4051,
      "Air": 4052,
      "March": 4053,
      "fair": 4054,
      "max": 4055,
      "##nes": 4056,
      "##wood": 4057,
      "##leg": 4058,
      "refer": 4059,
      "##igation": 4060,
      "places": 4061,
      "accom": 4062,
      "avoid": 4063,
      "released": 4064,
      "lab": 4065,
      "##imately": 4066,
      "##iff": 4067,
      "imag": 4068,
      "West": 4069,
      "aim": 4070,
      "jud": 4071,
      "##pite": 4072,
      "##ancy": 4073,
      "##ivity": 4074,
      "uses": 4075,
      "client": 4076,
      "developed": 4077,
      "technical": 4078,
      "movie": 4079,
      "wonderful": 4080,
      "tub": 4081,
      "##spect": 4082,
      "##erve": 4083,
      "plant": 4084,
      "region": 4085,
      "activity": 4086,
      "steps": 4087,
      "26": 4088,
      "##ius": 4089,
      "carry": 4090,
      "extrem": 4091,
      "obtain": 4092,
      "##ipped": 4093,
      "##pendent": 4094,
      "definitely": 4095,
      "Ac": 4096,
      "vict": 4097,
      "##yond": 4098,
      "##itation": 4099,
      "knew": 4100,
      "##ressed": 4101,
      "active": 4102,
      "register": 4103,
      "largest": 4104,
      "conduct": 4105,
      "esc": 4106,
      "floor": 4107,
      "500": 4108,
      "Russ": 4109,
      "cross": 4110,
      "fashion": 4111,
      "pen": 4112,
      "##AL": 4113,
      "##hel": 4114,
      "##inated": 4115,
      "##itary": 4116,
      "##olic": 4117,
      "##oos": 4118,
      "trip": 4119,
      "became": 4120,
      "wants": 4121,
      "Associ": 4122,
      "surv": 4123,
      "population": 4124,
      "fully": 4125,
      "Mon": 4126,
      "More": 4127,
      "dry": 4128,
      "drop": 4129,
      "##ville": 4130,
      "##urb": 4131,
      "stru": 4132,
      "##istics": 4133,
      "##oses": 4134,
      "effort": 4135,
      "distrib": 4136,
      "broad": 4137,
      "steel": 4138,
      "purchase": 4139,
      "satis": 4140,
      "45": 4141,
      "Val": 4142,
      "fear": 4143,
      "led": 4144,
      "##na": 4145,
      "##ky": 4146,
      "##ares": 4147,
      "dog": 4148,
      "197": 4149,
      "experienced": 4150,
      "photos": 4151,
      "employees": 4152,
      "movement": 4153,
      "analysis": 4154,
      "commercial": 4155,
      "Cle": 4156,
      "mount": 4157,
      "ver": 4158,
      "##wise": 4159,
      "##xic": 4160,
      "##oms": 4161,
      "began": 4162,
      "##sequ": 4163,
      "consult": 4164,
      "profession": 4165,
      "##ography": 4166,
      "opportunities": 4167,
      "temper": 4168,
      "pressure": 4169,
      "touch": 4170,
      "Bro": 4171,
      "Dav": 4172,
      "gar": 4173,
      "hor": 4174,
      "##uted": 4175,
      "enh": 4176,
      "##odes": 4177,
      "prices": 4178,
      "clin": 4179,
      "overall": 4180,
      "##ension": 4181,
      "##ocol": 4182,
      "Bra": 4183,
      "virt": 4184,
      "##oices": 4185,
      "##mm": 4186,
      "##arant": 4187,
      "##cember": 4188,
      "aren": 4189,
      "flav": 4190,
      "turned": 4191,
      "girls": 4192,
      "Internet": 4193,
      "beginning": 4194,
      "heavy": 4195,
      "fat": 4196,
      "##iar": 4197,
      "##uit": 4198,
      "stage": 4199,
      "tele": 4200,
      "insurance": 4201,
      "provider": 4202,
      "##opping": 4203,
      "Get": 4204,
      "doll": 4205,
      "language": 4206,
      "##gen": 4207,
      "tried": 4208,
      "Rec": 4209,
      "lots": 4210,
      "Republic": 4211,
      "associated": 4212,
      "Geor": 4213,
      "Met": 4214,
      "cy": 4215,
      "##cul": 4216,
      "##cause": 4217,
      "##light": 4218,
      "##arily": 4219,
      "notice": 4220,
      "commit": 4221,
      "December": 4222,
      "patient": 4223,
      "brain": 4224,
      "nearly": 4225,
      "published": 4226,
      "degree": 4227,
      "band": 4228,
      "##tress": 4229,
      "##gery": 4230,
      "##uc": 4231,
      "##bit": 4232,
      "##ha": 4233,
      "states": 4234,
      "consist": 4235,
      "greater": 4236,
      "restaur": 4237,
      "families": 4238,
      "Direct": 4239,
      "Satur": 4240,
      "bi": 4241,
      "fix": 4242,
      "mer": 4243,
      "terr": 4244,
      "##sh": 4245,
      "##ened": 4246,
      "stick": 4247,
      "eval": 4248,
      "useful": 4249,
      "experiences": 4250,
      "Because": 4251,
      "increasing": 4252,
      "situation": 4253,
      "European": 4254,
      "September": 4255,
      "sav": 4256,
      "shown": 4257,
      "note": 4258,
      "##arden": 4259,
      "mechan": 4260,
      "workers": 4261,
      "prem": 4262,
      "##ronic": 4263,
      "Green": 4264,
      "nuclear": 4265,
      "reve": 4266,
      "reasons": 4267,
      "##ado": 4268,
      "##aker": 4269,
      "##ously": 4270,
      "interact": 4271,
      "cold": 4272,
      "produce": 4273,
      "Why": 4274,
      "instruct": 4275,
      "hotel": 4276,
      "campaign": 4277,
      "analy": 4278,
      "Jer": 4279,
      "bag": 4280,
      "dedicated": 4281,
      "##ms": 4282,
      "##0s": 4283,
      "##change": 4284,
      "##raft": 4285,
      "scen": 4286,
      "himself": 4287,
      "effects": 4288,
      "July": 4289,
      "son": 4290,
      "##sp": 4291,
      "##reci": 4292,
      "##isions": 4293,
      "##enty": 4294,
      "##atever": 4295,
      "##ategy": 4296,
      "##board": 4297,
      "physical": 4298,
      "President": 4299,
      "Department": 4300,
      "Dem": 4301,
      "Whe": 4302,
      "mail": 4303,
      "##ex": 4304,
      "##iation": 4305,
      "##IT": 4306,
      "although": 4307,
      "convers": 4308,
      "acqu": 4309,
      "emot": 4310,
      "offering": 4311,
      "##ancing": 4312,
      "##aught": 4313,
      "message": 4314,
      "princi": 4315,
      "Har": 4316,
      "Out": 4317,
      "San": 4318,
      "brought": 4319,
      "dire": 4320,
      "homes": 4321,
      "porn": 4322,
      "##now": 4323,
      "##iam": 4324,
      "##orage": 4325,
      "##rote": 4326,
      "##igr": 4327,
      "adop": 4328,
      "##aches": 4329,
      "##ruary": 4330,
      "screen": 4331,
      "surface": 4332,
      "cream": 4333,
      "journey": 4334,
      "Each": 4335,
      "aid": 4336,
      "kitchen": 4337,
      "street": 4338,
      "Inter": 4339,
      "smart": 4340,
      "finish": 4341,
      "Christian": 4342,
      "August": 4343,
      "February": 4344,
      "Go": 4345,
      "King": 4346,
      "Over": 4347,
      "Pat": 4348,
      "categ": 4349,
      "session": 4350,
      "finished": 4351,
      "opin": 4352,
      "picture": 4353,
      "immediately": 4354,
      "budget": 4355,
      "28": 4356,
      "Ear": 4357,
      "##ri": 4358,
      "serve": 4359,
      "relax": 4360,
      "surround": 4361,
      "powerful": 4362,
      "Phil": 4363,
      "certainly": 4364,
      "Sim": 4365,
      "Tod": 4366,
      "ult": 4367,
      "##cies": 4368,
      "truly": 4369,
      "unc": 4370,
      "serious": 4371,
      "trail": 4372,
      "critical": 4373,
      "##ipping": 4374,
      "limited": 4375,
      "Flor": 4376,
      "Coun": 4377,
      "Other": 4378,
      "cash": 4379,
      "race": 4380,
      "rules": 4381,
      "und": 4382,
      "##iant": 4383,
      "shared": 4384,
      "supply": 4385,
      "assign": 4386,
      "businesses": 4387,
      "entry": 4388,
      "devices": 4389,
      "normal": 4390,
      "Sund": 4391,
      "lack": 4392,
      "vill": 4393,
      "wid": 4394,
      "##aly": 4395,
      "##oming": 4396,
      "threat": 4397,
      "helped": 4398,
      "Develop": 4399,
      "posted": 4400,
      "letter": 4401,
      "mattress": 4402,
      "College": 4403,
      "particularly": 4404,
      "vehicle": 4405,
      "extremely": 4406,
      "Saturday": 4407,
      "Cr": 4408,
      "Face": 4409,
      "sort": 4410,
      "##PS": 4411,
      "proced": 4412,
      "outd": 4413,
      "spread": 4414,
      "poor": 4415,
      "##porary": 4416,
      "creative": 4417,
      "pictures": 4418,
      "organizations": 4419,
      "breat": 4420,
      "cab": 4421,
      "##ien": 4422,
      "##ette": 4423,
      "star": 4424,
      "stories": 4425,
      "alone": 4426,
      "spirit": 4427,
      "2012": 4428,
      "blue": 4429,
      "##tenance": 4430,
      "factors": 4431,
      "allowed": 4432,
      "Trans": 4433,
      "paid": 4434,
      "Medical": 4435,
      "TV": 4436,
      "liter": 4437,
      "##OU": 4438,
      "finding": 4439,
      "Ang": 4440,
      "advanced": 4441,
      "properties": 4442,
      "histor": 4443,
      "device": 4444,
      "characters": 4445,
      "challenge": 4446,
      "31": 4447,
      "Free": 4448,
      "bon": 4449,
      "farm": 4450,
      "##rast": 4451,
      "##inger": 4452,
      "##omen": 4453,
      "##iding": 4454,
      "comments": 4455,
      "shop": 4456,
      "shall": 4457,
      "regul": 4458,
      "##undred": 4459,
      "investment": 4460,
      "capt": 4461,
      "benefit": 4462,
      "economic": 4463,
      "Group": 4464,
      "vot": 4465,
      "wrote": 4466,
      "##itude": 4467,
      "##amic": 4468,
      "friendly": 4469,
      "Design": 4470,
      "Washing": 4471,
      "appropriate": 4472,
      "Up": 4473,
      "der": 4474,
      "filled": 4475,
      "hop": 4476,
      "##iable": 4477,
      "##SS": 4478,
      "##ederal": 4479,
      "##asc": 4480,
      "beyond": 4481,
      "interview": 4482,
      "charge": 4483,
      "continu": 4484,
      "respond": 4485,
      "replace": 4486,
      "Best": 4487,
      "SE": 4488,
      "pages": 4489,
      "##wh": 4490,
      "resume": 4491,
      "##izz": 4492,
      "challenges": 4493,
      "direction": 4494,
      "During": 4495,
      "Sect": 4496,
      "named": 4497,
      "pull": 4498,
      "react": 4499,
      "depe": 4500,
      "door": 4501,
      "clot": 4502,
      "resist": 4503,
      "unf": 4504,
      "advice": 4505,
      "Play": 4506,
      "##aughter": 4507,
      "\".": 4508,
      "29": 4509,
      "birth": 4510,
      "lines": 4511,
      "micro": 4512,
      "rent": 4513,
      "##ara": 4514,
      "trade": 4515,
      "quant": 4516,
      "owned": 4517,
      "Trump": 4518,
      "grand": 4519,
      "Gra": 4520,
      "Great": 4521,
      "Mor": 4522,
      "Nove": 4523,
      "father": 4524,
      "gave": 4525,
      "psych": 4526,
      "vac": 4527,
      "wall": 4528,
      "##vin": 4529,
      "strength": 4530,
      "guarant": 4531,
      "images": 4532,
      "saying": 4533,
      "Calif": 4534,
      "Australia": 4535,
      "##usband": 4536,
      "November": 4537,
      "Jack": 4538,
      "##ivery": 4539,
      "appreci": 4540,
      "China": 4541,
      "196": 4542,
      "##attle": 4543,
      "existing": 4544,
      "Op": 4545,
      "din": 4546,
      "harm": 4547,
      "##iment": 4548,
      "sust": 4549,
      "basis": 4550,
      "protection": 4551,
      "##coming": 4552,
      "claims": 4553,
      "candid": 4554,
      "strugg": 4555,
      "Find": 4556,
      "IN": 4557,
      "La": 4558,
      "Mal": 4559,
      "ST": 4560,
      "Sci": 4561,
      "nation": 4562,
      "##ford": 4563,
      "##ID": 4564,
      "weather": 4565,
      "traffic": 4566,
      "earlier": 4567,
      "schools": 4568,
      "testing": 4569,
      "changing": 4570,
      "failure": 4571,
      "Gold": 4572,
      "Je": 4573,
      "hundred": 4574,
      "##ixt": 4575,
      "##anch": 4576,
      "rev": 4577,
      "selection": 4578,
      "Char": 4579,
      "experts": 4580,
      "studies": 4581,
      "Program": 4582,
      "easier": 4583,
      "delic": 4584,
      "Christmas": 4585,
      "construction": 4586,
      "methods": 4587,
      "route": 4588,
      "measure": 4589,
      "disease": 4590,
      "Bus": 4591,
      "Good": 4592,
      "Mod": 4593,
      "Sur": 4594,
      "##overy": 4595,
      "##bur": 4596,
      "##oul": 4597,
      "dead": 4598,
      "##unk": 4599,
      "compl": 4600,
      "parties": 4601,
      "remind": 4602,
      "##airs": 4603,
      "Class": 4604,
      "older": 4605,
      "annual": 4606,
      "sexual": 4607,
      "talking": 4608,
      "Paul": 4609,
      "Educ": 4610,
      "##oly": 4611,
      "##wide": 4612,
      "##aling": 4613,
      "##illing": 4614,
      "contain": 4615,
      "goals": 4616,
      "rock": 4617,
      "couldn": 4618,
      "acid": 4619,
      "minute": 4620,
      "confir": 4621,
      "payment": 4622,
      "afford": 4623,
      "absolut": 4624,
      "adjust": 4625,
      "27": 4626,
      "Mond": 4627,
      "Post": 4628,
      "War": 4629,
      "eight": 4630,
      "graph": 4631,
      "length": 4632,
      "mis": 4633,
      "rob": 4634,
      "##ault": 4635,
      "##ald": 4636,
      "##iced": 4637,
      "onto": 4638,
      "stress": 4639,
      "##aming": 4640,
      "##iber": 4641,
      "thank": 4642,
      "industr": 4643,
      "served": 4644,
      "White": 4645,
      "Indian": 4646,
      "##arri": 4647,
      "views": 4648,
      "responsible": 4649,
      "scient": 4650,
      "circ": 4651,
      "Sunday": 4652,
      "boo": 4653,
      "cast": 4654,
      "husband": 4655,
      "thr": 4656,
      "##ager": 4657,
      "teen": 4658,
      "##place": 4659,
      "2010": 4660,
      "helping": 4661,
      "cars": 4662,
      "teams": 4663,
      "generally": 4664,
      "slight": 4665,
      "occas": 4666,
      "sweet": 4667,
      "Californ": 4668,
      "Last": 4669,
      "##yle": 4670,
      "##IL": 4671,
      "##itter": 4672,
      "fore": 4673,
      "##acing": 4674,
      "incor": 4675,
      "therefore": 4676,
      "2011": 4677,
      "seeing": 4678,
      "followed": 4679,
      "weekend": 4680,
      "demon": 4681,
      "##rapy": 4682,
      "highest": 4683,
      "relevant": 4684,
      "Facebook": 4685,
      "Work": 4686,
      "middle": 4687,
      "##ox": 4688,
      "##mark": 4689,
      "##erved": 4690,
      "thous": 4691,
      "##ady": 4692,
      "frame": 4693,
      "shoot": 4694,
      "##ague": 4695,
      "feet": 4696,
      "offered": 4697,
      "reported": 4698,
      "changed": 4699,
      "videos": 4700,
      "determine": 4701,
      "doub": 4702,
      "straight": 4703,
      "Rem": 4704,
      "rich": 4705,
      "roll": 4706,
      "##gin": 4707,
      "##dule": 4708,
      "dish": 4709,
      "strategy": 4710,
      "symp": 4711,
      "instit": 4712,
      "reflect": 4713,
      "meaning": 4714,
      "update": 4715,
      "##OMAN": 4716,
      "join": 4717,
      "title": 4718,
      "Washington": 4719,
      "Bel": 4720,
      "Disc": 4721,
      "Em": 4722,
      "wife": 4723,
      "##aled": 4724,
      "##oles": 4725,
      "##osition": 4726,
      "contains": 4727,
      "accur": 4728,
      "guy": 4729,
      "setting": 4730,
      "Techn": 4731,
      "Mus": 4732,
      "Oh": 4733,
      "tag": 4734,
      "##care": 4735,
      "##OW": 4736,
      "##utions": 4737,
      "##amm": 4738,
      "##orthern": 4739,
      "unit": 4740,
      "server": 4741,
      "##gred": 4742,
      "kept": 4743,
      "developing": 4744,
      "connection": 4745,
      "PROMAN": 4746,
      "California": 4747,
      "Mich": 4748,
      "Power": 4749,
      "cards": 4750,
      "##more": 4751,
      "##body": 4752,
      "sequ": 4753,
      "club": 4754,
      "manage": 4755,
      "standards": 4756,
      "passion": 4757,
      "anti": 4758,
      "exercise": 4759,
      "Look": 4760,
      "Mount": 4761,
      "batter": 4762,
      "dut": 4763,
      "gain": 4764,
      "##iny": 4765,
      "##urning": 4766,
      "whatever": 4767,
      "wear": 4768,
      "Thanks": 4769,
      "##hens": 4770,
      "numer": 4771,
      "memory": 4772,
      "passed": 4773,
      "Today": 4774,
      "##orrow": 4775,
      "##itect": 4776,
      "ingred": 4777,
      "##imal": 4778,
      "sem": 4779,
      "##osis": 4780,
      "Street": 4781,
      "remain": 4782,
      "communities": 4783,
      "winter": 4784,
      "Research": 4785,
      "volume": 4786,
      "established": 4787,
      "recipe": 4788,
      "util": 4789,
      "aspects": 4790,
      "baby": 4791,
      "Monday": 4792,
      "demonstr": 4793,
      "luck": 4794,
      "nut": 4795,
      "trou": 4796,
      "##cl": 4797,
      "##bum": 4798,
      "##estern": 4799,
      "exhib": 4800,
      "colour": 4801,
      "datas": 4802,
      "numbers": 4803,
      "##overn": 4804,
      "capital": 4805,
      "focused": 4806,
      "entertain": 4807,
      "parking": 4808,
      "comfortable": 4809,
      "regarding": 4810,
      "structure": 4811,
      "behavior": 4812,
      "EU": 4813,
      "Sch": 4814,
      "ice": 4815,
      "tips": 4816,
      "##12": 4817,
      "##add": 4818,
      "##ivil": 4819,
      "plus": 4820,
      "retail": 4821,
      "double": 4822,
      "prepared": 4823,
      "primary": 4824,
      "##itic": 4825,
      "##used": 4826,
      "background": 4827,
      "##ortunately": 4828,
      "selling": 4829,
      "honest": 4830,
      "Service": 4831,
      "Ir": 4832,
      "brow": 4833,
      "ir": 4834,
      "##hop": 4835,
      "##atively": 4836,
      "##aint": 4837,
      "knows": 4838,
      "biggest": 4839,
      "employee": 4840,
      "pieces": 4841,
      "essential": 4842,
      "AN": 4843,
      "Ob": 4844,
      "ahead": 4845,
      "names": 4846,
      "##ram": 4847,
      "placed": 4848,
      "income": 4849,
      "##iverse": 4850,
      "forms": 4851,
      "reports": 4852,
      "People": 4853,
      "Custom": 4854,
      "Esc": 4855,
      "Im": 4856,
      "Spr": 4857,
      "gone": 4858,
      "##ooth": 4859,
      "##cher": 4860,
      "##ban": 4861,
      "##utive": 4862,
      "conference": 4863,
      "society": 4864,
      "compon": 4865,
      "Web": 4866,
      "See": 4867,
      "calls": 4868,
      "expand": 4869,
      "News": 4870,
      "keeping": 4871,
      "jobs": 4872,
      "military": 4873,
      "Services": 4874,
      "British": 4875,
      "Del": 4876,
      "Rom": 4877,
      "Year": 4878,
      "aware": 4879,
      "wild": 4880,
      "##SC": 4881,
      "##).": 4882,
      "##itiz": 4883,
      "##roud": 4884,
      "compared": 4885,
      "incred": 4886,
      "195": 4887,
      "efforts": 4888,
      "surgery": 4889,
      "transport": 4890,
      "happens": 4891,
      "##iques": 4892,
      "diagn": 4893,
      "solid": 4894,
      "Supp": 4895,
      "figure": 4896,
      "chemical": 4897,
      "Govern": 4898,
      "Hol": 4899,
      "Jes": 4900,
      "pul": 4901,
      "##cast": 4902,
      "##IV": 4903,
      "##ona": 4904,
      "##istry": 4905,
      "poker": 4906,
      "##hips": 4907,
      "Click": 4908,
      "ideal": 4909,
      "opening": 4910,
      "science": 4911,
      "System": 4912,
      "applied": 4913,
      "talent": 4914,
      "Business": 4915,
      "Roy": 4916,
      "fab": 4917,
      "hospital": 4918,
      "rank": 4919,
      "##ses": 4920,
      "##ey": 4921,
      "##eness": 4922,
      "##entially": 4923,
      "force": 4924,
      "##osing": 4925,
      "Str": 4926,
      "disapp": 4927,
      "thanks": 4928,
      "decide": 4929,
      "reality": 4930,
      "completed": 4931,
      "larger": 4932,
      "internal": 4933,
      "Association": 4934,
      "UN": 4935,
      "fant": 4936,
      "fish": 4937,
      "flex": 4938,
      "gas": 4939,
      "gift": 4940,
      "##iency": 4941,
      "##reme": 4942,
      "##iling": 4943,
      "ang": 4944,
      "sharing": 4945,
      "##osure": 4946,
      "teaching": 4947,
      "perhaps": 4948,
      "##ologies": 4949,
      "famous": 4950,
      "leader": 4951,
      "listed": 4952,
      "obv": 4953,
      "learned": 4954,
      "managed": 4955,
      "female": 4956,
      "egg": 4957,
      "fra": 4958,
      "##wor": 4959,
      "##ST": 4960,
      "##inate": 4961,
      "storage": 4962,
      "Thurs": 4963,
      "##que": 4964,
      "ourselves": 4965,
      "pool": 4966,
      "communication": 4967,
      "bottom": 4968,
      "advantage": 4969,
      "Cour": 4970,
      "PC": 4971,
      "Wind": 4972,
      "cup": 4973,
      "fly": 4974,
      "task": 4975,
      "##iest": 4976,
      "##pm": 4977,
      "##hem": 4978,
      "##oop": 4979,
      "doctor": 4980,
      "prec": 4981,
      "looked": 4982,
      "guys": 4983,
      "French": 4984,
      "visual": 4985,
      "enjoyed": 4986,
      "##lusive": 4987,
      "According": 4988,
      "Council": 4989,
      "32": 4990,
      "CA": 4991,
      "Loc": 4992,
      "dro": 4993,
      "##mission": 4994,
      "album": 4995,
      "##ifying": 4996,
      "tend": 4997,
      "excited": 4998,
      "smaller": 4999,
      "moved": 5000,
      "collabor": 5001,
      "Lake": 5002,
      "Sun": 5003,
      "fle": 5004,
      "hom": 5005,
      "mission": 5006,
      "shut": 5007,
      "##ffee": 5008,
      "quarter": 5009,
      "buying": 5010,
      "carr": 5011,
      "requires": 5012,
      "earth": 5013,
      "##ervation": 5014,
      "records": 5015,
      "assistance": 5016,
      "copy": 5017,
      "establish": 5018,
      "professionals": 5019,
      "Florida": 5020,
      "300": 5021,
      "76": 5022,
      "90": 5023,
      "Rob": 5024,
      "master": 5025,
      "##PA": 5026,
      "##rees": 5027,
      "##enture": 5028,
      "peace": 5029,
      "actual": 5030,
      "conscious": 5031,
      "carb": 5032,
      "medium": 5033,
      "##venue": 5034,
      "occup": 5035,
      "magn": 5036,
      "faith": 5037,
      "advertising": 5038,
      "Development": 5039,
      "36": 5040,
      "Book": 5041,
      "Gina": 5042,
      "II": 5043,
      "pet": 5044,
      "##uk": 5045,
      "##atically": 5046,
      "##rel": 5047,
      "##oma": 5048,
      "##roid": 5049,
      "conven": 5050,
      "##thalm": 5051,
      "sports": 5052,
      "##icks": 5053,
      "##rupt": 5054,
      "police": 5055,
      "reviews": 5056,
      "combination": 5057,
      "Institute": 5058,
      "balance": 5059,
      "Top": 5060,
      "Vis": 5061,
      "ast": 5062,
      "born": 5063,
      "##OL": 5064,
      "##enior": 5065,
      "##entr": 5066,
      "haven": 5067,
      "chann": 5068,
      "meat": 5069,
      "residents": 5070,
      "whose": 5071,
      "##ounds": 5072,
      "academ": 5073,
      "presence": 5074,
      "models": 5075,
      "format": 5076,
      "maintenance": 5077,
      "director": 5078,
      "brok": 5079,
      "capac": 5080,
      "beauty": 5081,
      "daughter": 5082,
      "joy": 5083,
      "##jack": 5084,
      "##kin": 5085,
      "##igence": 5086,
      "##raw": 5087,
      "church": 5088,
      "##umn": 5089,
      "##phthalm": 5090,
      "facilities": 5091,
      "status": 5092,
      "manufactur": 5093,
      "##ww": 5094,
      "##//": 5095,
      "##eration": 5096,
      "shape": 5097,
      "spl": 5098,
      "pregn": 5099,
      "adding": 5100,
      "Social": 5101,
      "artists": 5102,
      "delivery": 5103,
      "classic": 5104,
      "Check": 5105,
      "Party": 5106,
      "70": 5107,
      "Law": 5108,
      "danger": 5109,
      "gather": 5110,
      "##inct": 5111,
      "##icing": 5112,
      "thus": 5113,
      "##ulf": 5114,
      "##ooper": 5115,
      "neck": 5116,
      "##ago": 5117,
      "truth": 5118,
      "Church": 5119,
      "owner": 5120,
      "driver": 5121,
      "cheap": 5122,
      "century": 5123,
      "restrict": 5124,
      "miles": 5125,
      "Super": 5126,
      "documents": 5127,
      "elements": 5128,
      "animals": 5129,
      "mentioned": 5130,
      "maximum": 5131,
      "horse": 5132,
      "Jesus": 5133,
      "Cong": 5134,
      "Public": 5135,
      "Sl": 5136,
      "fuck": 5137,
      "hook": 5138,
      "##encies": 5139,
      "##reed": 5140,
      "##owl": 5141,
      "alc": 5142,
      "##pping": 5143,
      "##emporary": 5144,
      "plants": 5145,
      "lose": 5146,
      "argu": 5147,
      "secret": 5148,
      "Dec": 5149,
      "##ended": 5150,
      "advance": 5151,
      "transfer": 5152,
      "##force": 5153,
      "schedule": 5154,
      "Education": 5155,
      "Thursday": 5156,
      "camer": 5157,
      "www": 5158,
      "##cription": 5159,
      "##icip": 5160,
      "##sec": 5161,
      "sector": 5162,
      "##istan": 5163,
      "shopping": 5164,
      "##unt": 5165,
      "##iend": 5166,
      "Inv": 5167,
      "##ograp": 5168,
      "Read": 5169,
      "guests": 5170,
      "secure": 5171,
      "values": 5172,
      "concentr": 5173,
      "statement": 5174,
      "origin": 5175,
      "craft": 5176,
      "relationships": 5177,
      "watching": 5178,
      "independent": 5179,
      "selected": 5180,
      "AM": 5181,
      "Hel": 5182,
      "##chers": 5183,
      "##pro": 5184,
      "##ham": 5185,
      "##inations": 5186,
      "toward": 5187,
      "##ander": 5188,
      "compr": 5189,
      "prep": 5190,
      "busy": 5191,
      "operations": 5192,
      "covered": 5193,
      "cleaning": 5194,
      "agreement": 5195,
      "teachers": 5196,
      "radio": 5197,
      "Germany": 5198,
      "corporate": 5199,
      "satisf": 5200,
      "##ocolate": 5201,
      "Care": 5202,
      "Long": 5203,
      "Like": 5204,
      "bike": 5205,
      "proud": 5206,
      "voice": 5207,
      "##vision": 5208,
      "##erg": 5209,
      "##itness": 5210,
      "forget": 5211,
      "appoint": 5212,
      "produced": 5213,
      "remove": 5214,
      "showing": 5215,
      "vision": 5216,
      "posts": 5217,
      "Lead": 5218,
      "classes": 5219,
      "situ": 5220,
      "updated": 5221,
      "Two": 5222,
      "drug": 5223,
      "htt": 5224,
      "Whether": 5225,
      "://": 5226,
      "DU": 5227,
      "….": 5228,
      "##set": 5229,
      "##craft": 5230,
      "##isl": 5231,
      "##ishes": 5232,
      "seven": 5233,
      "plenty": 5234,
      "climate": 5235,
      "spa": 5236,
      "leads": 5237,
      "estim": 5238,
      "practices": 5239,
      "Commission": 5240,
      "Board": 5241,
      "Canada": 5242,
      "Market": 5243,
      "Office": 5244,
      "virtual": 5245,
      "Call": 5246,
      "bond": 5247,
      "ign": 5248,
      "map": 5249,
      "##time": 5250,
      "##ios": 5251,
      "##uable": 5252,
      "##yer": 5253,
      "##​​": 5254,
      "##ero": 5255,
      "reb": 5256,
      "reached": 5257,
      "##semb": 5258,
      "##abilities": 5259,
      "shot": 5260,
      "spons": 5261,
      "uns": 5262,
      "##formation": 5263,
      "helpful": 5264,
      "decl": 5265,
      "Ann": 5266,
      "##azon": 5267,
      "generation": 5268,
      "facility": 5269,
      "diet": 5270,
      "visitors": 5271,
      "identify": 5272,
      "majority": 5273,
      "Found": 5274,
      "Have": 5275,
      "Pal": 5276,
      "bought": 5277,
      "cru": 5278,
      "eating": 5279,
      "fan": 5280,
      "iP": 5281,
      "##house": 5282,
      "##itar": 5283,
      "##akers": 5284,
      "sugar": 5285,
      "##unte": 5286,
      "agency": 5287,
      "phase": 5288,
      "feels": 5289,
      "thoughts": 5290,
      "central": 5291,
      "species": 5292,
      "electric": 5293,
      "Management": 5294,
      "Special": 5295,
      "Sector": 5296,
      "dinner": 5297,
      "Hist": 5298,
      "Yes": 5299,
      "mist": 5300,
      "ton": 5301,
      "##zz": 5302,
      "##isation": 5303,
      "stream": 5304,
      "##aked": 5305,
      "##ection": 5306,
      "compar": 5307,
      "suppl": 5308,
      "smok": 5309,
      "president": 5310,
      "Club": 5311,
      "##standing": 5312,
      "previously": 5313,
      "Phot": 5314,
      "inspired": 5315,
      "harass": 5316,
      "Use": 5317,
      "Ve": 5318,
      "hers": 5319,
      "kill": 5320,
      "##ael": 5321,
      "##tics": 5322,
      "##essions": 5323,
      "performed": 5324,
      "continued": 5325,
      "operator": 5326,
      "presented": 5327,
      "competition": 5328,
      "##ING": 5329,
      "audience": 5330,
      "ingredients": 5331,
      "Bre": 5332,
      "citiz": 5333,
      "lands": 5334,
      "sand": 5335,
      "vote": 5336,
      "##rehens": 5337,
      "complic": 5338,
      "Through": 5339,
      "spect": 5340,
      "##order": 5341,
      "becomes": 5342,
      "evening": 5343,
      "metal": 5344,
      "Exp": 5345,
      "typically": 5346,
      "happened": 5347,
      "sounds": 5348,
      "holiday": 5349,
      "architect": 5350,
      "strategies": 5351,
      "##hetic": 5352,
      "Ev": 5353,
      "Hot": 5354,
      "James": 5355,
      "Medic": 5356,
      "PL": 5357,
      "vir": 5358,
      "##ext": 5359,
      "##cel": 5360,
      "##ij": 5361,
      "##eds": 5362,
      "##ros": 5363,
      "despite": 5364,
      "processes": 5365,
      "techniques": 5366,
      "files": 5367,
      "edge": 5368,
      "caused": 5369,
      "alternative": 5370,
      "sustain": 5371,
      "##works": 5372,
      "80": 5373,
      "Card": 5374,
      "Wed": 5375,
      "dim": 5376,
      "furn": 5377,
      "lived": 5378,
      "pair": 5379,
      "##yal": 5380,
      "##ET": 5381,
      "##itors": 5382,
      "##ubb": 5383,
      "wouldn": 5384,
      "colors": 5385,
      "##ampions": 5386,
      "USA": 5387,
      "freed": 5388,
      "Sil": 5389,
      "ec": 5390,
      "mo": 5391,
      "van": 5392,
      "##rig": 5393,
      "##ica": 5394,
      "##olf": 5395,
      "extend": 5396,
      "weap": 5397,
      "ship": 5398,
      "shap": 5399,
      "Thank": 5400,
      "appar": 5401,
      "##icken": 5402,
      "spending": 5403,
      "##inese": 5404,
      "runs": 5405,
      "investig": 5406,
      "package": 5407,
      "funding": 5408,
      "Community": 5409,
      "Network": 5410,
      "THE": 5411,
      "sympt": 5412,
      "capacity": 5413,
      "Lou": 5414,
      "Sam": 5415,
      "Sub": 5416,
      "af": 5417,
      "bul": 5418,
      "rap": 5419,
      "sources": 5420,
      "wat": 5421,
      "tow": 5422,
      "Their": 5423,
      "##ushing": 5424,
      "meant": 5425,
      "becoming": 5426,
      "scale": 5427,
      "committed": 5428,
      "Another": 5429,
      "grant": 5430,
      "brother": 5431,
      "initial": 5432,
      "neighbor": 5433,
      "CE": 5434,
      "Emp": 5435,
      "Fol": 5436,
      "Jo": 5437,
      "Micro": 5438,
      "amp": 5439,
      "rain": 5440,
      "##hy": 5441,
      "repe": 5442,
      "##uses": 5443,
      "##bert": 5444,
      "theme": 5445,
      "owners": 5446,
      "symb": 5447,
      "guess": 5448,
      "brings": 5449,
      "approx": 5450,
      "distance": 5451,
      "websites": 5452,
      "calcul": 5453,
      "initi": 5454,
      "predict": 5455,
      "David": 5456,
      "75": 5457,
      "IP": 5458,
      "Mem": 5459,
      "Under": 5460,
      "bread": 5461,
      "cake": 5462,
      "”,": 5463,
      "##pes": 5464,
      "##10": 5465,
      "##arge": 5466,
      "stores": 5467,
      "##andom": 5468,
      "closed": 5469,
      "cloud": 5470,
      "Chinese": 5471,
      "##anging": 5472,
      "express": 5473,
      "profit": 5474,
      "conflic": 5475,
      "appears": 5476,
      "launch": 5477,
      "removed": 5478,
      "Profess": 5479,
      "bathroom": 5480,
      "thousands": 5481,
      "Camp": 5482,
      "IT": 5483,
      "Imp": 5484,
      "Make": 5485,
      "les": 5486,
      "##AD": 5487,
      "##IP": 5488,
      "##iled": 5489,
      "##ilit": 5490,
      "##ada": 5491,
      "adapt": 5492,
      "##ints": 5493,
      "driving": 5494,
      "##ternal": 5495,
      "handle": 5496,
      "opened": 5497,
      "explore": 5498,
      "##cuit": 5499,
      "window": 5500,
      "announced": 5501,
      "incorpor": 5502,
      ".)": 5503,
      "Big": 5504,
      "Mad": 5505,
      "cry": 5506,
      "tun": 5507,
      "tail": 5508,
      "tape": 5509,
      "##23": 5510,
      "##ano": 5511,
      "station": 5512,
      "agent": 5513,
      "remains": 5514,
      "artist": 5515,
      "courses": 5516,
      "config": 5517,
      "waiting": 5518,
      "economy": 5519,
      "Build": 5520,
      "numerous": 5521,
      "99": 5522,
      "AC": 5523,
      "Alex": 5524,
      "Both": 5525,
      "Hum": 5526,
      "Vol": 5527,
      "eth": 5528,
      "fell": 5529,
      "gall": 5530,
      "garden": 5531,
      "pow": 5532,
      "south": 5533,
      "##pa": 5534,
      "##igar": 5535,
      "##antic": 5536,
      "button": 5537,
      "leaves": 5538,
      "trial": 5539,
      "clim": 5540,
      "coach": 5541,
      "mostly": 5542,
      "bright": 5543,
      "assets": 5544,
      "showed": 5545,
      "expensive": 5546,
      "##roll": 5547,
      "movies": 5548,
      "favour": 5549,
      "Amazon": 5550,
      "##lusion": 5551,
      "Open": 5552,
      "DUI": 5553,
      "Fire": 5554,
      "Sand": 5555,
      "bod": 5556,
      "mort": 5557,
      "##crib": 5558,
      "##ifts": 5559,
      "chocolate": 5560,
      "enable": 5561,
      "resear": 5562,
      "context": 5563,
      "smooth": 5564,
      "##azine": 5565,
      "discount": 5566,
      "earn": 5567,
      "Beach": 5568,
      "treated": 5569,
      "football": 5570,
      "pleas": 5571,
      "encourage": 5572,
      "temperature": 5573,
      "Bay": 5574,
      "Div": 5575,
      "East": 5576,
      "labor": 5577,
      "##rim": 5578,
      "##iance": 5579,
      "##OS": 5580,
      "tom": 5581,
      "##ctors": 5582,
      "##sey": 5583,
      "cancer": 5584,
      "##iking": 5585,
      "decisions": 5586,
      "markets": 5587,
      "leadership": 5588,
      "transl": 5589,
      "Online": 5590,
      "brown": 5591,
      "belief": 5592,
      "##ohol": 5593,
      "connected": 5594,
      "##opped": 5595,
      "hyp": 5596,
      "familiar": 5597,
      "expertise": 5598,
      "suitable": 5599,
      "outdoor": 5600,
      "herself": 5601,
      "Wednes": 5602,
      "Cath": 5603,
      "Dan": 5604,
      "Rel": 5605,
      "Ret": 5606,
      "Sal": 5607,
      "Sol": 5608,
      "den": 5609,
      "##nel": 5610,
      "##ga": 5611,
      "##ka": 5612,
      "##ala": 5613,
      "forum": 5614,
      "forces": 5615,
      "leaving": 5616,
      "otherwise": 5617,
      "coffee": 5618,
      "sheet": 5619,
      "actions": 5620,
      "decades": 5621,
      "flu": 5622,
      "flat": 5623,
      "designs": 5624,
      "ended": 5625,
      "leaders": 5626,
      "centre": 5627,
      "operating": 5628,
      "filed": 5629,
      "promote": 5630,
      "appearance": 5631,
      "links": 5632,
      "religious": 5633,
      "error": 5634,
      "enhance": 5635,
      "AL": 5636,
      "Cas": 5637,
      "IS": 5638,
      "Life": 5639,
      "Rad": 5640,
      "Tues": 5641,
      "core": 5642,
      "cart": 5643,
      "civil": 5644,
      "##mitted": 5645,
      "##EL": 5646,
      "##BC": 5647,
      "##inse": 5648,
      "##encing": 5649,
      "##edy": 5650,
      "##uration": 5651,
      "willing": 5652,
      "##outhern": 5653,
      "Int": 5654,
      "anywhere": 5655,
      "unless": 5656,
      "impress": 5657,
      "Real": 5658,
      "minimum": 5659,
      "district": 5660,
      "exciting": 5661,
      "Att": 5662,
      "Const": 5663,
      "paint": 5664,
      "tickets": 5665,
      "Africa": 5666,
      "patterns": 5667,
      "taste": 5668,
      "Ant": 5669,
      "Having": 5670,
      "Miss": 5671,
      "View": 5672,
      "federal": 5673,
      "gro": 5674,
      "jump": 5675,
      "mine": 5676,
      "ven": 5677,
      "##gment": 5678,
      "##uries": 5679,
      "reference": 5680,
      "manner": 5681,
      "quot": 5682,
      "novel": 5683,
      "goods": 5684,
      "processing": 5685,
      "detailed": 5686,
      "construct": 5687,
      "arrange": 5688,
      "returned": 5689,
      "teacher": 5690,
      "separate": 5691,
      "influence": 5692,
      "guidance": 5693,
      "opinion": 5694,
      "Government": 5695,
      "Bank": 5696,
      "Die": 5697,
      "Lat": 5698,
      "Lear": 5699,
      "Mag": 5700,
      "Water": 5701,
      "joint": 5702,
      "sch": 5703,
      "##noon": 5704,
      "##field": 5705,
      "##ya": 5706,
      "##dd": 5707,
      "##zen": 5708,
      "##ulated": 5709,
      "##estival": 5710,
      "spr": 5711,
      "sched": 5712,
      "Ass": 5713,
      "seconds": 5714,
      "Color": 5715,
      "winning": 5716,
      "cooking": 5717,
      "snow": 5718,
      "recommended": 5719,
      "vehicles": 5720,
      "counter": 5721,
      "Canadian": 5722,
      "awarded": 5723,
      "accompl": 5724,
      "hundreds": 5725,
      "foreign": 5726,
      "Wednesday": 5727,
      "Av": 5728,
      "Down": 5729,
      "Lu": 5730,
      "River": 5731,
      "bound": 5732,
      "dance": 5733,
      "rinse": 5734,
      "yes": 5735,
      "##een": 5736,
      "##ias": 5737,
      "##BS": 5738,
      "##iture": 5739,
      "beach": 5740,
      "worry": 5741,
      "intell": 5742,
      "veget": 5743,
      "articles": 5744,
      "Show": 5745,
      "possibly": 5746,
      "operation": 5747,
      "employment": 5748,
      "Mexic": 5749,
      "Data": 5750,
      "Elect": 5751,
      "List": 5752,
      "Note": 5753,
      "Search": 5754,
      "fold": 5755,
      "sac": 5756,
      "##list": 5757,
      "##gl": 5758,
      "##gency": 5759,
      "##vention": 5760,
      "##NA": 5761,
      "##orney": 5762,
      "##illa": 5763,
      "org": 5764,
      "waste": 5765,
      "enem": 5766,
      "butter": 5767,
      "Its": 5768,
      "spring": 5769,
      "Child": 5770,
      "##enses": 5771,
      "shel": 5772,
      "starts": 5773,
      "Union": 5774,
      "purs": 5775,
      "2009": 5776,
      "confidence": 5777,
      "repair": 5778,
      "limit": 5779,
      "concerns": 5780,
      "funds": 5781,
      "orders": 5782,
      "depending": 5783,
      "delicious": 5784,
      "slightly": 5785,
      "Court": 5786,
      "IC": 5787,
      "Main": 5788,
      "Port": 5789,
      "Wr": 5790,
      "Word": 5791,
      "libr": 5792,
      "north": 5793,
      "ring": 5794,
      "roof": 5795,
      "random": 5796,
      "##inating": 5797,
      "##esome": 5798,
      "##uled": 5799,
      "choices": 5800,
      "pray": 5801,
      "##intage": 5802,
      "guest": 5803,
      "##ception": 5804,
      "slot": 5805,
      "Tex": 5806,
      "successfully": 5807,
      "trend": 5808,
      "multi": 5809,
      "laun": 5810,
      "cultural": 5811,
      "description": 5812,
      "apart": 5813,
      "causes": 5814,
      "Director": 5815,
      "Cap": 5816,
      "Hy": 5817,
      "Where": 5818,
      "crow": 5819,
      "tree": 5820,
      "##pool": 5821,
      "##ils": 5822,
      "loan": 5823,
      "teach": 5824,
      "amb": 5825,
      "scr": 5826,
      "minor": 5827,
      "Before": 5828,
      "valuable": 5829,
      "2006": 5830,
      "putting": 5831,
      "Instead": 5832,
      "manager": 5833,
      "motor": 5834,
      "debt": 5835,
      "efficient": 5836,
      "Democr": 5837,
      "Angel": 5838,
      "Lord": 5839,
      "Mil": 5840,
      "Que": 5841,
      "Women": 5842,
      "sitting": 5843,
      "witness": 5844,
      "##pan": 5845,
      "##sem": 5846,
      "consequ": 5847,
      "Thom": 5848,
      "truck": 5849,
      "contemporary": 5850,
      "desire": 5851,
      "##phone": 5852,
      "Ariz": 5853,
      "continues": 5854,
      "elim": 5855,
      "##ommod": 5856,
      "turns": 5857,
      "##idden": 5858,
      "volunte": 5859,
      "African": 5860,
      "welcome": 5861,
      "victim": 5862,
      "absolutely": 5863,
      "duty": 5864,
      "Tuesday": 5865,
      "Hall": 5866,
      "Vide": 5867,
      "Win": 5868,
      "burn": 5869,
      "bird": 5870,
      "dial": 5871,
      "gre": 5872,
      "mouth": 5873,
      "nor": 5874,
      "##ech": 5875,
      "##ml": 5876,
      "##30": 5877,
      "##ario": 5878,
      "##iration": 5879,
      "##racy": 5880,
      "shares": 5881,
      "##agram": 5882,
      "fee": 5883,
      "##prise": 5884,
      "registration": 5885,
      "Produ": 5886,
      "realize": 5887,
      "visiting": 5888,
      "photograph": 5889,
      "##iveness": 5890,
      "legisl": 5891,
      "trees": 5892,
      "bringing": 5893,
      "fulf": 5894,
      "innovative": 5895,
      "fantastic": 5896,
      "academic": 5897,
      "prepare": 5898,
      "symptoms": 5899,
      "Bet": 5900,
      "Bur": 5901,
      "Mot": 5902,
      "Pay": 5903,
      "died": 5904,
      "grown": 5905,
      "nar": 5906,
      "sessions": 5907,
      "taught": 5908,
      "##iability": 5909,
      "##ugg": 5910,
      "stars": 5911,
      "whom": 5912,
      "proceed": 5913,
      "prospect": 5914,
      "##estyle": 5915,
      "##apers": 5916,
      "Stand": 5917,
      "units": 5918,
      "score": 5919,
      "sets": 5920,
      "crim": 5921,
      "survey": 5922,
      "signs": 5923,
      "2008": 5924,
      "accounts": 5925,
      "installed": 5926,
      "audio": 5927,
      "journal": 5928,
      "announce": 5929,
      "billion": 5930,
      "clinical": 5931,
      "procedures": 5932,
      "Mel": 5933,
      "Mill": 5934,
      "Rich": 5935,
      "catch": 5936,
      "male": 5937,
      "##ship": 5938,
      "##pet": 5939,
      "##OD": 5940,
      "##asks": 5941,
      "throw": 5942,
      "thread": 5943,
      "chat": 5944,
      "Chic": 5945,
      "Who": 5946,
      "afternoon": 5947,
      "invent": 5948,
      "##erts": 5949,
      "drivers": 5950,
      "corner": 5951,
      "glad": 5952,
      "electronic": 5953,
      "specifically": 5954,
      "discussion": 5955,
      "delivered": 5956,
      "songs": 5957,
      "drugs": 5958,
      "described": 5959,
      "houses": 5960,
      "Congress": 5961,
      "Arizona": 5962,
      "Food": 5963,
      "Jour": 5964,
      "Light": 5965,
      "Log": 5966,
      "OF": 5967,
      "ment": 5968,
      "wire": 5969,
      "##iers": 5970,
      "##50": 5971,
      "##eless": 5972,
      "##iders": 5973,
      "##osen": 5974,
      "resolution": 5975,
      "accommod": 5976,
      "##tee": 5977,
      "scene": 5978,
      "France": 5979,
      "Atl": 5980,
      "parent": 5981,
      "photograp": 5982,
      "kinds": 5983,
      "combined": 5984,
      "holding": 5985,
      "##useum": 5986,
      "##____": 5987,
      "officials": 5988,
      "Finally": 5989,
      "housing": 5990,
      "distribution": 5991,
      "##rehensive": 5992,
      "Ben": 5993,
      "Dedicated": 5994,
      "Lin": 5995,
      "NOT": 5996,
      "Time": 5997,
      "Wall": 5998,
      "cities": 5999,
      "gun": 6000,
      "tiss": 6001,
      "##aser": 6002,
      "beer": 6003,
      "choos": 6004,
      "plastic": 6005,
      "##inding": 6006,
      "##grad": 6007,
      "decre": 6008,
      "valid": 6009,
      "Americans": 6010,
      "department": 6011,
      "animal": 6012,
      "!!!": 6013,
      "category": 6014,
      "Michael": 6015,
      "rapid": 6016,
      "fans": 6017,
      "nav": 6018,
      "saving": 6019,
      "##ae": 6020,
      "##like": 6021,
      "##EC": 6022,
      "##ania": 6023,
      "##icul": 6024,
      "##omb": 6025,
      "##uts": 6026,
      "##ulations": 6027,
      "##ested": 6028,
      "##ube": 6029,
      "##itionally": 6030,
      "coord": 6031,
      "flight": 6032,
      "Society": 6033,
      "simpl": 6034,
      "properly": 6035,
      "Team": 6036,
      "begins": 6037,
      "totally": 6038,
      "consumers": 6039,
      "motiv": 6040,
      "negative": 6041,
      "adults": 6042,
      "brows": 6043,
      "alcohol": 6044,
      "freedom": 6045,
      "Haw": 6046,
      "ID": 6047,
      "Love": 6048,
      "Wil": 6049,
      "jew": 6050,
      "senior": 6051,
      "##lor": 6052,
      "##ipe": 6053,
      "##men": 6054,
      "##AP": 6055,
      "##hi": 6056,
      "##areness": 6057,
      "alle": 6058,
      "##cking": 6059,
      "##cipl": 6060,
      "appeal": 6061,
      "speaking": 6062,
      "undert": 6063,
      "remark": 6064,
      "instru": 6065,
      "Android": 6066,
      "Project": 6067,
      "optim": 6068,
      "explain": 6069,
      "constantly": 6070,
      "reasonable": 6071,
      "improvement": 6072,
      "Apple": 6073,
      "responsibility": 6074,
      "bedroom": 6075,
      "General": 6076,
      "Second": 6077,
      "George": 6078,
      "camera": 6079,
      "Bill": 6080,
      "Hill": 6081,
      "Hear": 6082,
      "Men": 6083,
      "Old": 6084,
      "Rated": 6085,
      "Sign": 6086,
      "Somet": 6087,
      "fo": 6088,
      "pu": 6089,
      "wine": 6090,
      "’,": 6091,
      "##US": 6092,
      "##hab": 6093,
      "##24": 6094,
      "beat": 6095,
      "shock": 6096,
      "noted": 6097,
      "##arts": 6098,
      "spaces": 6099,
      "Star": 6100,
      "recovery": 6101,
      "instance": 6102,
      "brief": 6103,
      "importance": 6104,
      "mainly": 6105,
      "Plan": 6106,
      "Applic": 6107,
      "installation": 6108,
      "implementation": 6109,
      "Disney": 6110,
      "conversation": 6111,
      "affordable": 6112,
      "broken": 6113,
      "http": 6114,
      "smoking": 6115,
      "crowd": 6116,
      "\",": 6117,
      "Tom": 6118,
      "ban": 6119,
      "iron": 6120,
      "lux": 6121,
      "mental": 6122,
      "rom": 6123,
      "warr": 6124,
      "##che": 6125,
      "##iently": 6126,
      "##uated": 6127,
      "##ym": 6128,
      "##amin": 6129,
      "##verse": 6130,
      "ath": 6131,
      "sea": 6132,
      "tea": 6133,
      "interp": 6134,
      "desk": 6135,
      "serving": 6136,
      "Def": 6137,
      "grade": 6138,
      "defense": 6139,
      "foundation": 6140,
      "extensive": 6141,
      "approved": 6142,
      "info": 6143,
      "performing": 6144,
      "tests": 6145,
      "meetings": 6146,
      "facilit": 6147,
      "Blue": 6148,
      "reduced": 6149,
      "magic": 6150,
      "cells": 6151,
      "injury": 6152,
      "perspect": 6153,
      "German": 6154,
      "seeking": 6155,
      "registered": 6156,
      "Windows": 6157,
      "38": 6158,
      "Game": 6159,
      "Kar": 6160,
      "Mac": 6161,
      "Opt": 6162,
      "Pac": 6163,
      "SM": 6164,
      "soul": 6165,
      "turning": 6166,
      "##fit": 6167,
      "##miss": 6168,
      "##has": 6169,
      "##hand": 6170,
      "##RA": 6171,
      "##esting": 6172,
      "conv": 6173,
      "seat": 6174,
      "exchange": 6175,
      "##osm": 6176,
      "dogs": 6177,
      "resource": 6178,
      "fees": 6179,
      "accident": 6180,
      "knowing": 6181,
      "Review": 6182,
      "transact": 6183,
      "paying": 6184,
      "searching": 6185,
      "Maybe": 6186,
      "##box": 6187,
      "consumer": 6188,
      "raised": 6189,
      "##ambling": 6190,
      "dispens": 6191,
      "efficiency": 6192,
      "imagine": 6193,
      "battery": 6194,
      "harassment": 6195,
      "symbol": 6196,
      "lesb": 6197,
      "Cert": 6198,
      "Mach": 6199,
      "Rock": 6200,
      "dyn": 6201,
      "fif": 6202,
      "king": 6203,
      "lunch": 6204,
      "none": 6205,
      "pun": 6206,
      "##ef": 6207,
      "##cell": 6208,
      "##mes": 6209,
      "##ION": 6210,
      "##orough": 6211,
      "##elines": 6212,
      "##ads": 6213,
      "prove": 6214,
      "##ighter": 6215,
      "##outs": 6216,
      "servers": 6217,
      "cris": 6218,
      "locations": 6219,
      "retire": 6220,
      "listen": 6221,
      "polic": 6222,
      "charges": 6223,
      "interests": 6224,
      "2007": 6225,
      "obl": 6226,
      "Next": 6227,
      "clearly": 6228,
      "happening": 6229,
      "hosting": 6230,
      "purposes": 6231,
      "Keep": 6232,
      "restaurant": 6233,
      "doubt": 6234,
      "nutr": 6235,
      "situations": 6236,
      "Louis": 6237,
      "Fam": 6238,
      "Mary": 6239,
      "Person": 6240,
      "cigar": 6241,
      "diverse": 6242,
      "fro": 6243,
      "ox": 6244,
      "rise": 6245,
      "voc": 6246,
      "##mar": 6247,
      "##itz": 6248,
      "##alian": 6249,
      "##asy": 6250,
      "##ste": 6251,
      "##cean": 6252,
      "stre": 6253,
      "##tered": 6254,
      "##cket": 6255,
      "##usion": 6256,
      "##osit": 6257,
      "##ikes": 6258,
      "##berry": 6259,
      "reliable": 6260,
      "calling": 6261,
      "operate": 6262,
      "practical": 6263,
      "asking": 6264,
      "rooms": 6265,
      "eventually": 6266,
      "educational": 6267,
      "switch": 6268,
      "qualified": 6269,
      "fuel": 6270,
      "assessment": 6271,
      "adopt": 6272,
      "EM": 6273,
      "Sk": 6274,
      "hem": 6275,
      "mir": 6276,
      "rat": 6277,
      "ride": 6278,
      "tight": 6279,
      "tile": 6280,
      "walls": 6281,
      "##fast": 6282,
      "##word": 6283,
      "theory": 6284,
      "##omin": 6285,
      "thin": 6286,
      "convey": 6287,
      "##emon": 6288,
      "2000": 6289,
      "##ails": 6290,
      "university": 6291,
      "positions": 6292,
      "##ologist": 6293,
      "flood": 6294,
      "Prov": 6295,
      "transform": 6296,
      "engagement": 6297,
      "encoun": 6298,
      "counsel": 6299,
      "industrial": 6300,
      "neighborhood": 6301,
      "approximately": 6302,
      "34": 6303,
      "Further": 6304,
      "Western": 6305,
      "hood": 6306,
      "ok": 6307,
      "push": 6308,
      "sin": 6309,
      "##equ": 6310,
      "##greg": 6311,
      "##IA": 6312,
      "##itis": 6313,
      "##oty": 6314,
      "##estic": 6315,
      "chap": 6316,
      "plate": 6317,
      "Though": 6318,
      "Step": 6319,
      "greatest": 6320,
      "providers": 6321,
      "signal": 6322,
      "##arried": 6323,
      "##ructure": 6324,
      "musical": 6325,
      "England": 6326,
      "determined": 6327,
      "lifestyle": 6328,
      "##friend": 6329,
      "emotional": 6330,
      "boost": 6331,
      "citizens": 6332,
      "Ap": 6333,
      "Glo": 6334,
      "Wood": 6335,
      "pin": 6336,
      "pal": 6337,
      "vit": 6338,
      "##ez": 6339,
      "##itution": 6340,
      "thick": 6341,
      "sud": 6342,
      "##ushed": 6343,
      "upload": 6344,
      "lov": 6345,
      "quiet": 6346,
      "##reek": 6347,
      "agents": 6348,
      "recru": 6349,
      "##ocracy": 6350,
      "supposed": 6351,
      "critic": 6352,
      "programme": 6353,
      "##lands": 6354,
      "factor": 6355,
      "Exper": 6356,
      "employer": 6357,
      "affil": 6358,
      "treatments": 6359,
      "tells": 6360,
      "Road": 6361,
      "significantly": 6362,
      "Using": 6363,
      "appreciate": 6364,
      "Den": 6365,
      "Pet": 6366,
      "Sum": 6367,
      "Vir": 6368,
      "mel": 6369,
      "tasks": 6370,
      "##gia": 6371,
      "##min": 6372,
      "##DA": 6373,
      "##TA": 6374,
      "##ato": 6375,
      "##atre": 6376,
      "##oration": 6377,
      "##ican": 6378,
      "forg": 6379,
      "withd": 6380,
      "##anta": 6381,
      "##unning": 6382,
      "Those": 6383,
      "trib": 6384,
      "##ogen": 6385,
      "##ogue": 6386,
      "apps": 6387,
      "perman": 6388,
      "##tein": 6389,
      "Head": 6390,
      "##oker": 6391,
      "bigger": 6392,
      "....": 6393,
      "environmental": 6394,
      "absor": 6395,
      "missing": 6396,
      "##going": 6397,
      "Earth": 6398,
      "breath": 6399,
      "cabin": 6400,
      "Escorts": 6401,
      "Support": 6402,
      "bodies": 6403,
      "Hospital": 6404,
      "Walk": 6405,
      "element": 6406,
      "nurs": 6407,
      "##fl": 6408,
      "##MC": 6409,
      "##dr": 6410,
      "##erves": 6411,
      "##lets": 6412,
      "youth": 6413,
      "##abled": 6414,
      "univers": 6415,
      "advis": 6416,
      "technologies": 6417,
      "recorded": 6418,
      "McC": 6419,
      "flowers": 6420,
      "regularly": 6421,
      "license": 6422,
      "Valley": 6423,
      "guarantee": 6424,
      "Ber": 6425,
      "Bob": 6426,
      "Equ": 6427,
      "Los": 6428,
      "Take": 6429,
      "pure": 6430,
      "##off": 6431,
      "##aid": 6432,
      "##look": 6433,
      "##pond": 6434,
      "##heet": 6435,
      "##eries": 6436,
      "##otton": 6437,
      "anx": 6438,
      "external": 6439,
      "sole": 6440,
      "Chi": 6441,
      "colle": 6442,
      "genetic": 6443,
      "Only": 6444,
      "delay": 6445,
      "effectively": 6446,
      "capable": 6447,
      "##ancou": 6448,
      "household": 6449,
      "perfectly": 6450,
      "arrived": 6451,
      "##ospit": 6452,
      "risks": 6453,
      "identified": 6454,
      "fields": 6455,
      "Control": 6456,
      "examples": 6457,
      "awesome": 6458,
      "degrees": 6459,
      "licens": 6460,
      "introduced": 6461,
      "illustr": 6462,
      "Grand": 6463,
      "Science": 6464,
      "institutions": 6465,
      "components": 6466,
      "landsc": 6467,
      "Follow": 6468,
      "Texas": 6469,
      "HD": 6470,
      "Hind": 6471,
      "Sen": 6472,
      "bes": 6473,
      "dump": 6474,
      "pill": 6475,
      "rol": 6476,
      "tro": 6477,
      "##nic": 6478,
      "##cles": 6479,
      "##fol": 6480,
      "##mosp": 6481,
      "therapy": 6482,
      "##orial": 6483,
      "##rete": 6484,
      "assemb": 6485,
      "compli": 6486,
      "twice": 6487,
      "relatively": 6488,
      "Asia": 6489,
      "worldwide": 6490,
      "supporting": 6491,
      "supported": 6492,
      "functions": 6493,
      "delight": 6494,
      "increases": 6495,
      "buildings": 6496,
      "promises": 6497,
      "depth": 6498,
      "occurr": 6499,
      "Scott": 6500,
      "competitive": 6501,
      "cutting": 6502,
      "objective": 6503,
      "partnership": 6504,
      "epis": 6505,
      "html": 6506,
      "surrounding": 6507,
      "##ixture": 6508,
      "##phthalmology": 6509,
      "furniture": 6510,
      "Chicago": 6511,
      "lovely": 6512,
      "01": 6513,
      "Did": 6514,
      "cer": 6515,
      "die": 6516,
      "ju": 6517,
      "jack": 6518,
      "mal": 6519,
      "nine": 6520,
      "sau": 6521,
      "tough": 6522,
      "##ju": 6523,
      "##ye": 6524,
      "##TS": 6525,
      "##iti": 6526,
      "##othe": 6527,
      "##ula": 6528,
      "##umin": 6529,
      "##cient": 6530,
      "remaining": 6531,
      "cheese": 6532,
      "feelings": 6533,
      "topic": 6534,
      "allowing": 6535,
      "humans": 6536,
      "seemed": 6537,
      "foods": 6538,
      "coup": 6539,
      "moments": 6540,
      "templ": 6541,
      "privacy": 6542,
      "closer": 6543,
      "awareness": 6544,
      "behavi": 6545,
      "frequently": 6546,
      "commitment": 6547,
      "restaurants": 6548,
      "revealed": 6549,
      "lucky": 6550,
      "Video": 6551,
      "policies": 6552,
      "AS": 6553,
      "Gene": 6554,
      "du": 6555,
      "vary": 6556,
      "yellow": 6557,
      "##eed": 6558,
      "##rical": 6559,
      "##tle": 6560,
      "##bed": 6561,
      "##40": 6562,
      "##hent": 6563,
      "##ini": 6564,
      "##itled": 6565,
      "##ician": 6566,
      "##ulate": 6567,
      "weak": 6568,
      "##ava": 6569,
      "arm": 6570,
      "##tending": 6571,
      "trained": 6572,
      "phil": 6573,
      "differences": 6574,
      "folks": 6575,
      "profile": 6576,
      "resulting": 6577,
      "issued": 6578,
      "swim": 6579,
      "tracks": 6580,
      "messages": 6581,
      "walking": 6582,
      "measures": 6583,
      "Gener": 6584,
      "##esterday": 6585,
      "##ettes": 6586,
      "discovered": 6587,
      "renew": 6588,
      "conducted": 6589,
      "Pacific": 6590,
      "Ext": 6591,
      "Land": 6592,
      "Lew": 6593,
      "Uk": 6594,
      "sam": 6595,
      "sample": 6596,
      "vital": 6597,
      "##nam": 6598,
      "##rd": 6599,
      "##uing": 6600,
      "##uits": 6601,
      "##vit": 6602,
      "##NOW": 6603,
      "##omy": 6604,
      "##umber": 6605,
      "##ella": 6606,
      "butt": 6607,
      "comprehensive": 6608,
      "output": 6609,
      "Information": 6610,
      "cock": 6611,
      "pharm": 6612,
      "monit": 6613,
      "Sex": 6614,
      "datab": 6615,
      "emphas": 6616,
      "organic": 6617,
      "improved": 6618,
      "severe": 6619,
      "styles": 6620,
      "purchased": 6621,
      "elev": 6622,
      "raise": 6623,
      "##orrh": 6624,
      "normally": 6625,
      "Twitter": 6626,
      "feedback": 6627,
      "dreams": 6628,
      "violence": 6629,
      "label": 6630,
      "instructions": 6631,
      "spiritual": 6632,
      "##while": 6633,
      "candidates": 6634,
      "scientific": 6635,
      "occasion": 6636,
      "dangerous": 6637,
      "33": 6638,
      "CD": 6639,
      "EC": 6640,
      "Vi": 6641,
      "Vict": 6642,
      "kid": 6643,
      "ped": 6644,
      "##well": 6645,
      "##iler": 6646,
      "rein": 6647,
      "##adow": 6648,
      "##rab": 6649,
      "chosen": 6650,
      "##artz": 6651,
      "##oga": 6652,
      "interior": 6653,
      "coast": 6654,
      "##ishing": 6655,
      "##ifications": 6656,
      "driven": 6657,
      "highlight": 6658,
      "belong": 6659,
      "advoc": 6660,
      "healthcare": 6661,
      "##atured": 6662,
      "engage": 6663,
      "solar": 6664,
      "index": 6665,
      "joined": 6666,
      "surprise": 6667,
      "emergency": 6668,
      "carried": 6669,
      "schol": 6670,
      "Dig": 6671,
      "Distr": 6672,
      "Ha": 6673,
      "Jim": 6674,
      "PM": 6675,
      "Table": 6676,
      "ends": 6677,
      "kick": 6678,
      "ly": 6679,
      "rule": 6680,
      "sulf": 6681,
      "##eper": 6682,
      "##down": 6683,
      "##IG": 6684,
      "##ena": 6685,
      "##itics": 6686,
      "fruit": 6687,
      "atmosp": 6688,
      "##osite": 6689,
      "intended": 6690,
      "##ulty": 6691,
      "ages": 6692,
      "cocon": 6693,
      "193": 6694,
      "Prot": 6695,
      "monthly": 6696,
      "exclusive": 6697,
      "equal": 6698,
      "considering": 6699,
      "facing": 6700,
      "depart": 6701,
      "occur": 6702,
      "protected": 6703,
      "##ographic": 6704,
      "Carol": 6705,
      "officer": 6706,
      "apartment": 6707,
      "closely": 6708,
      "contribute": 6709,
      "affected": 6710,
      "massage": 6711,
      "negot": 6712,
      "square": 6713,
      "Academ": 6714,
      "literally": 6715,
      "incredible": 6716,
      "Foundation": 6717,
      "Download": 6718,
      "coconut": 6719,
      "39": 6720,
      "800": 6721,
      "Kill": 6722,
      "Tre": 6723,
      "married": 6724,
      "narr": 6725,
      "northern": 6726,
      "vintage": 6727,
      "##cons": 6728,
      "##OP": 6729,
      "##han": 6730,
      "##IM": 6731,
      "revenue": 6732,
      "shar": 6733,
      "chose": 6734,
      "##osoph": 6735,
      "##oster": 6736,
      "soci": 6737,
      "usual": 6738,
      "##soft": 6739,
      "contrast": 6740,
      "bless": 6741,
      "##away": 6742,
      "signed": 6743,
      "keeps": 6744,
      "improving": 6745,
      "coverage": 6746,
      "reput": 6747,
      "magazine": 6748,
      "milk": 6749,
      "blend": 6750,
      "circum": 6751,
      "trouble": 6752,
      "disappoint": 6753,
      "impressive": 6754,
      "sudden": 6755,
      "District": 6756,
      "Curr": 6757,
      "Fil": 6758,
      "Mer": 6759,
      "Tim": 6760,
      "Watch": 6761,
      "YOU": 6762,
      "ease": 6763,
      "faster": 6764,
      "il": 6765,
      "lad": 6766,
      "mile": 6767,
      "wet": 6768,
      "##aud": 6769,
      "##iat": 6770,
      "deals": 6771,
      "##eller": 6772,
      "##acter": 6773,
      "Week": 6774,
      "agencies": 6775,
      "##anged": 6776,
      "##angers": 6777,
      "finds": 6778,
      "gene": 6779,
      "mode": 6780,
      "defend": 6781,
      "distinct": 6782,
      "photography": 6783,
      "bask": 6784,
      "Residential": 6785,
      "windows": 6786,
      "participate": 6787,
      "silver": 6788,
      "observed": 6789,
      "automatically": 6790,
      "administr": 6791,
      "Japanese": 6792,
      "historical": 6793,
      "bonus": 6794,
      "accurate": 6795,
      "launched": 6796,
      "##hentic": 6797,
      "65": 6798,
      "Gal": 6799,
      "Sing": 6800,
      "da": 6801,
      "fellow": 6802,
      "rare": 6803,
      "rough": 6804,
      "##EA": 6805,
      "##14": 6806,
      "##orry": 6807,
      "##etary": 6808,
      "forced": 6809,
      "stopped": 6810,
      "notes": 6811,
      "upcoming": 6812,
      "outstanding": 6813,
      "Italian": 6814,
      "##berg": 6815,
      "genu": 6816,
      "assum": 6817,
      "informed": 6818,
      "Frank": 6819,
      "exposure": 6820,
      "poll": 6821,
      "planned": 6822,
      "2005": 6823,
      "cookies": 6824,
      "machines": 6825,
      "Perhaps": 6826,
      "integrated": 6827,
      "Paris": 6828,
      "substant": 6829,
      "Philipp": 6830,
      "Colorado": 6831,
      "warrant": 6832,
      "perspective": 6833,
      "1st": 6834,
      "48": 6835,
      "47": 6836,
      "Back": 6837,
      "Gro": 6838,
      "Hand": 6839,
      "cute": 6840,
      "lit": 6841,
      "ter": 6842,
      "tab": 6843,
      "##the": 6844,
      "##la": 6845,
      "##iated": 6846,
      "##uel": 6847,
      "##ugh": 6848,
      "##orge": 6849,
      "input": 6850,
      "##isher": 6851,
      "stret": 6852,
      "frustr": 6853,
      "shoes": 6854,
      "##unction": 6855,
      "plays": 6856,
      "wheel": 6857,
      "teeth": 6858,
      "Unf": 6859,
      "flag": 6860,
      "carefully": 6861,
      "classroom": 6862,
      "refuge": 6863,
      "##respond": 6864,
      "##key": 6865,
      "indeed": 6866,
      "graduate": 6867,
      "##holders": 6868,
      "Small": 6869,
      "judge": 6870,
      "dollars": 6871,
      "Jackson": 6872,
      "Children": 6873,
      "Journal": 6874,
      "Sometimes": 6875,
      "Bab": 6876,
      "Code": 6877,
      "Mult": 6878,
      "Ty": 6879,
      "Ven": 6880,
      "battle": 6881,
      "lib": 6882,
      "nom": 6883,
      "odd": 6884,
      "pm": 6885,
      "##gers": 6886,
      "##bor": 6887,
      "##HS": 6888,
      "##lete": 6889,
      "##ston": 6890,
      "proof": 6891,
      "soil": 6892,
      "##mph": 6893,
      "residential": 6894,
      "featured": 6895,
      "spok": 6896,
      "##ulture": 6897,
      "Start": 6898,
      "regional": 6899,
      "courts": 6900,
      "expression": 6901,
      "topics": 6902,
      "param": 6903,
      "brands": 6904,
      "accessible": 6905,
      "Span": 6906,
      "involves": 6907,
      "recognized": 6908,
      "##yright": 6909,
      "village": 6910,
      "clothing": 6911,
      "clothes": 6912,
      "Iran": 6913,
      "AND": 6914,
      "moist": 6915,
      "Human": 6916,
      "dispenser": 6917,
      "AP": 6918,
      "Nov": 6919,
      "Offic": 6920,
      "Tor": 6921,
      "bowl": 6922,
      "gear": 6923,
      "gambling": 6924,
      "hall": 6925,
      "killed": 6926,
      "mari": 6927,
      "sister": 6928,
      "##RC": 6929,
      "##aturing": 6930,
      "##asher": 6931,
      "whirl": 6932,
      "##cked": 6933,
      "##cknow": 6934,
      "chr": 6935,
      "whenever": 6936,
      "readers": 6937,
      "skill": 6938,
      "adventure": 6939,
      "Arch": 6940,
      "correspond": 6941,
      "##arsh": 6942,
      "letters": 6943,
      "standing": 6944,
      "receiving": 6945,
      "reporting": 6946,
      "benefic": 6947,
      "Central": 6948,
      "holds": 6949,
      "failed": 6950,
      "circuit": 6951,
      "inspiration": 6952,
      "participants": 6953,
      "William": 6954,
      "massive": 6955,
      "religion": 6956,
      "Ide": 6957,
      "mechanism": 6958,
      "fabric": 6959,
      "Invest": 6960,
      "narrow": 6961,
      "DedicatedNOW": 6962,
      "choosing": 6963,
      "circumst": 6964,
      "Unfortunately": 6965,
      "?”": 6966,
      "Award": 6967,
      "Bas": 6968,
      "NY": 6969,
      "Vancou": 6970,
      "nl": 6971,
      "sizes": 6972,
      "tables": 6973,
      "’.": 6974,
      "##nown": 6975,
      "##cular": 6976,
      "##iety": 6977,
      "##gas": 6978,
      "##ua": 6979,
      "##mond": 6980,
      "##west": 6981,
      "##erate": 6982,
      "##oral": 6983,
      "##ounder": 6984,
      "##asters": 6985,
      "stated": 6986,
      "##see": 6987,
      "asp": 6988,
      "depend": 6989,
      "chicken": 6990,
      "lease": 6991,
      "##ibilities": 6992,
      "arg": 6993,
      "agreed": 6994,
      "serves": 6995,
      "regions": 6996,
      "listings": 6997,
      "charged": 6998,
      "founded": 6999,
      "entitled": 7000,
      "infrast": 7001,
      "tested": 7002,
      "equipped": 7003,
      "presentation": 7004,
      "appeared": 7005,
      "menu": 7006,
      "logical": 7007,
      "managers": 7008,
      "concerned": 7009,
      "immigr": 7010,
      "administration": 7011,
      "Obama": 7012,
      "extended": 7013,
      "favourite": 7014,
      "Product": 7015,
      "Vancouver": 7016,
      "400": 7017,
      "Cast": 7018,
      "DE": 7019,
      "Det": 7020,
      "ES": 7021,
      "Form": 7022,
      "Hope": 7023,
      "SP": 7024,
      "acknow": 7025,
      "bat": 7026,
      "dess": 7027,
      "fasc": 7028,
      "mut": 7029,
      "tiny": 7030,
      "##BI": 7031,
      "##iters": 7032,
      "##roy": 7033,
      "bear": 7034,
      "##lying": 7035,
      "##ching": 7036,
      "stone": 7037,
      "##uls": 7038,
      "suffic": 7039,
      "##istical": 7040,
      "shipping": 7041,
      "##ems": 7042,
      "worse": 7043,
      "meal": 7044,
      "sport": 7045,
      "speech": 7046,
      "commission": 7047,
      "acts": 7048,
      "mining": 7049,
      "writer": 7050,
      "promise": 7051,
      "buyers": 7052,
      "updates": 7053,
      "apos": 7054,
      "boxes": 7055,
      "pleased": 7056,
      "Series": 7057,
      "savings": 7058,
      "##arriage": 7059,
      "Cost": 7060,
      "Ep": 7061,
      "Jew": 7062,
      "Pass": 7063,
      "bones": 7064,
      "cotton": 7065,
      "turt": 7066,
      "vent": 7067,
      "vast": 7068,
      "##rum": 7069,
      "##dy": 7070,
      "##SA": 7071,
      "##astern": 7072,
      "##gend": 7073,
      "wealth": 7074,
      "chair": 7075,
      "healing": 7076,
      "Thus": 7077,
      "leather": 7078,
      "resol": 7079,
      "##ruption": 7080,
      "buff": 7081,
      "relative": 7082,
      "guitar": 7083,
      "mini": 7084,
      "generated": 7085,
      "creates": 7086,
      "##onym": 7087,
      "answers": 7088,
      "Contact": 7089,
      "proposed": 7090,
      "medicine": 7091,
      "Ohio": 7092,
      "supplies": 7093,
      "complicated": 7094,
      "atmosphere": 7095,
      "37": 7096,
      "88": 7097,
      "95": 7098,
      "Girl": 7099,
      "Li": 7100,
      "Mob": 7101,
      "Nor": 7102,
      "Six": 7103,
      "nic": 7104,
      "pod": 7105,
      "ran": 7106,
      "rely": 7107,
      "raw": 7108,
      "##night": 7109,
      "##col": 7110,
      "##ta": 7111,
      "##bles": 7112,
      "##11": 7113,
      "##oner": 7114,
      "##ita": 7115,
      "##sters": 7116,
      "##ota": 7117,
      "##raid": 7118,
      "##usal": 7119,
      "##osh": 7120,
      "##agra": 7121,
      "loves": 7122,
      "arts": 7123,
      "acting": 7124,
      "relief": 7125,
      "dram": 7126,
      "expans": 7127,
      "auto": 7128,
      "authentic": 7129,
      "hearing": 7130,
      "defe": 7131,
      "League": 7132,
      "2004": 7133,
      "basically": 7134,
      "deploy": 7135,
      "Commit": 7136,
      "Organ": 7137,
      "telling": 7138,
      "linked": 7139,
      "Despite": 7140,
      "collected": 7141,
      "entirely": 7142,
      "essay": 7143,
      "immediate": 7144,
      "gender": 7145,
      "fleet": 7146,
      "originally": 7147,
      "sustainable": 7148,
      "Microsoft": 7149,
      "Catholic": 7150,
      "CP": 7151,
      "Cat": 7152,
      "Cir": 7153,
      "Es": 7154,
      "Est": 7155,
      "Peter": 7156,
      "Qual": 7157,
      "east": 7158,
      "rid": 7159,
      "##vy": 7160,
      "##king": 7161,
      "##80": 7162,
      "inch": 7163,
      "forth": 7164,
      "reject": 7165,
      "##ola": 7166,
      "##aks": 7167,
      "chain": 7168,
      "worn": 7169,
      "##ghan": 7170,
      "Ins": 7171,
      "##orders": 7172,
      "traum": 7173,
      "everyday": 7174,
      "marks": 7175,
      "default": 7176,
      "Leah": 7177,
      "Adv": 7178,
      "##gypt": 7179,
      "demands": 7180,
      "Conference": 7181,
      "recording": 7182,
      "Does": 7183,
      "discussed": 7184,
      "Minister": 7185,
      "engineering": 7186,
      "Security": 7187,
      "embra": 7188,
      "Again": 7189,
      "mixed": 7190,
      "subsid": 7191,
      "surprised": 7192,
      "errors": 7193,
      "mountain": 7194,
      "Medicine": 7195,
      "scheduled": 7196,
      "Angeles": 7197,
      "Thomas": 7198,
      "Hawai": 7199,
      "Spanish": 7200,
      "Dou": 7201,
      "Lim": 7202,
      "Mat": 7203,
      "Ol": 7204,
      "Pu": 7205,
      "PS": 7206,
      "Sov": 7207,
      "border": 7208,
      "hire": 7209,
      "kit": 7210,
      "pump": 7211,
      "ru": 7212,
      "sad": 7213,
      "sides": 7214,
      "yesterday": 7215,
      "##nament": 7216,
      "##top": 7217,
      "##wr": 7218,
      "##CA": 7219,
      "##va": 7220,
      "##kl": 7221,
      "fort": 7222,
      "##ownt": 7223,
      "##iger": 7224,
      "align": 7225,
      "##abet": 7226,
      "##quir": 7227,
      "##ailand": 7228,
      "knock": 7229,
      "desired": 7230,
      "##icted": 7231,
      "smile": 7232,
      "personally": 7233,
      "Therefore": 7234,
      "formed": 7235,
      "Arts": 7236,
      "technique": 7237,
      "hardware": 7238,
      "edited": 7239,
      "entered": 7240,
      "returns": 7241,
      "identity": 7242,
      "Training": 7243,
      "picked": 7244,
      "Enter": 7245,
      "achieved": 7246,
      "fitness": 7247,
      "honor": 7248,
      "##liers": 7249,
      "Regard": 7250,
      "Australian": 7251,
      "Russia": 7252,
      "Russian": 7253,
      "premium": 7254,
      "Music": 7255,
      "eggs": 7256,
      "astron": 7257,
      "conflict": 7258,
      "mortg": 7259,
      "Victor": 7260,
      "infrastructure": 7261,
      "Bal": 7262,
      "Cond": 7263,
      "Dating": 7264,
      "Fig": 7265,
      "Mo": 7266,
      "SU": 7267,
      "dil": 7268,
      "hospit": 7269,
      "liqu": 7270,
      "west": 7271,
      "##iary": 7272,
      "##yers": 7273,
      "##FL": 7274,
      "##TM": 7275,
      "##22": 7276,
      "##orous": 7277,
      "inject": 7278,
      "##ura": 7279,
      "reward": 7280,
      "habit": 7281,
      "wash": 7282,
      "plot": 7283,
      "trig": 7284,
      "##acks": 7285,
      "##asses": 7286,
      "somewhere": 7287,
      "Still": 7288,
      "covers": 7289,
      "vend": 7290,
      "194": 7291,
      "studio": 7292,
      "##ports": 7293,
      "Spirit": 7294,
      "trends": 7295,
      "edition": 7296,
      "Mean": 7297,
      "membership": 7298,
      "fourth": 7299,
      "lapt": 7300,
      "##comes": 7301,
      "anticip": 7302,
      "hyper": 7303,
      "stocks": 7304,
      "eleg": 7305,
      "accepted": 7306,
      "applying": 7307,
      "primarily": 7308,
      "decorative": 7309,
      "slowly": 7310,
      "diseases": 7311,
      "principles": 7312,
      "struggle": 7313,
      "confirm": 7314,
      "pulled": 7315,
      "obvious": 7316,
      "channel": 7317,
      "manufacturers": 7318,
      "weapons": 7319,
      "afraid": 7320,
      "researchers": 7321,
      "Casino": 7322,
      "criminal": 7323,
      "whirlpool": 7324,
      "Joe": 7325,
      "Mid": 7326,
      "Saf": 7327,
      "cooper": 7328,
      "dining": 7329,
      "era": 7330,
      "icon": 7331,
      "liability": 7332,
      "tank": 7333,
      "vibr": 7334,
      "##ca": 7335,
      "##GB": 7336,
      "##erry": 7337,
      "##ingu": 7338,
      "##ilst": 7339,
      "##eline": 7340,
      "island": 7341,
      "##rain": 7342,
      "sear": 7343,
      "deeper": 7344,
      "chief": 7345,
      "##elled": 7346,
      "##asts": 7347,
      "Thailand": 7348,
      "ads": 7349,
      "loving": 7350,
      "spark": 7351,
      "anyway": 7352,
      "impl": 7353,
      "scope": 7354,
      "command": 7355,
      "adds": 7356,
      "poly": 7357,
      "Soft": 7358,
      "visited": 7359,
      "detect": 7360,
      "submit": 7361,
      "Being": 7362,
      "Clin": 7363,
      "extract": 7364,
      "extreme": 7365,
      "entr": 7366,
      "headed": 7367,
      "150": 7368,
      "lights": 7369,
      "summ": 7370,
      "Room": 7371,
      "layer": 7372,
      "Secret": 7373,
      "settings": 7374,
      "flavor": 7375,
      "Mountain": 7376,
      "dataset": 7377,
      "entertainment": 7378,
      "Spring": 7379,
      "jewel": 7380,
      "luxury": 7381,
      "Virgin": 7382,
      "database": 7383,
      "Academy": 7384,
      "Cur": 7385,
      "Farm": 7386,
      "HR": 7387,
      "Jac": 7388,
      "Ma": 7389,
      "Nav": 7390,
      "Northern": 7391,
      "Site": 7392,
      "Such": 7393,
      "Sales": 7394,
      "Tur": 7395,
      "bone": 7396,
      "grew": 7397,
      "hurt": 7398,
      "hidden": 7399,
      "lect": 7400,
      "pil": 7401,
      "pink": 7402,
      "papers": 7403,
      "row": 7404,
      "rail": 7405,
      "##oors": 7406,
      "##bour": 7407,
      "##EV": 7408,
      "##hors": 7409,
      "##LC": 7410,
      "##ora": 7411,
      "##ented": 7412,
      "##ellect": 7413,
      "suc": 7414,
      "##anda": 7415,
      "doors": 7416,
      "blind": 7417,
      "invited": 7418,
      "guard": 7419,
      "attached": 7420,
      "generate": 7421,
      "planet": 7422,
      "Priv": 7423,
      "passing": 7424,
      "investigation": 7425,
      "hotels": 7426,
      "explained": 7427,
      "sexy": 7428,
      "##apping": 7429,
      "crazy": 7430,
      "division": 7431,
      "domain": 7432,
      "advertise": 7433,
      "Additionally": 7434,
      "suffering": 7435,
      "fighting": 7436,
      "television": 7437,
      "replacement": 7438,
      "resistance": 7439,
      "birthday": 7440,
      "estimated": 7441,
      "CEO": 7442,
      "athlet": 7443,
      "withdraw": 7444,
      "sauce": 7445,
      "Di": 7446,
      "Egypt": 7447,
      "Hen": 7448,
      "Put": 7449,
      "dental": 7450,
      "election": 7451,
      "gay": 7452,
      "hat": 7453,
      "rub": 7454,
      "till": 7455,
      "vul": 7456,
      "##bl": 7457,
      "##bar": 7458,
      "##EM": 7459,
      "##OV": 7460,
      "##hr": 7461,
      "##RS": 7462,
      "##uten": 7463,
      "##uting": 7464,
      "##ading": 7465,
      "anc": 7466,
      "ancient": 7467,
      "worst": 7468,
      "##ells": 7469,
      "trick": 7470,
      "##azz": 7471,
      "facts": 7472,
      "2003": 7473,
      "opposite": 7474,
      "Chris": 7475,
      "prompt": 7476,
      "##anche": 7477,
      "millions": 7478,
      "dealing": 7479,
      "typical": 7480,
      "divide": 7481,
      "Clean": 7482,
      "shooting": 7483,
      "iPh": 7484,
      "##ampionship": 7485,
      "Global": 7486,
      "Access": 7487,
      "BR": 7488,
      "Creat": 7489,
      "HIV": 7490,
      "Jason": 7491,
      "Oak": 7492,
      "Set": 7493,
      "god": 7494,
      "gifts": 7495,
      "hun": 7496,
      "lift": 7497,
      "mur": 7498,
      "sight": 7499,
      "##bing": 7500,
      "##wing": 7501,
      "##ded": 7502,
      "inner": 7503,
      "##repr": 7504,
      "##etime": 7505,
      "##irts": 7506,
      "wearing": 7507,
      "##ipl": 7508,
      "##quar": 7509,
      "meets": 7510,
      "diss": 7511,
      "recover": 7512,
      "everywhere": 7513,
      "consists": 7514,
      "root": 7515,
      "decade": 7516,
      "##pected": 7517,
      "flour": 7518,
      "ending": 7519,
      "realized": 7520,
      "creation": 7521,
      "##nergy": 7522,
      "handling": 7523,
      "stands": 7524,
      "conclud": 7525,
      "refres": 7526,
      "Expl": 7527,
      "##ossible": 7528,
      "lighting": 7529,
      "nearby": 7530,
      "grab": 7531,
      "enterprise": 7532,
      "Instagram": 7533,
      "represents": 7534,
      "involve": 7535,
      "authority": 7536,
      "represented": 7537,
      "breakfast": 7538,
      "Media": 7539,
      "printed": 7540,
      "destination": 7541,
      "exceptional": 7542,
      "ticket": 7543,
      "ultimate": 7544,
      "farmers": 7545,
      "candidate": 7546,
      "framework": 7547,
      "appointment": 7548,
      "Leadership": 7549,
      "History": 7550,
      "shaped": 7551,
      "Learn": 7552,
      "Carolina": 7553,
      "Bi": 7554,
      "Fund": 7555,
      "IB": 7556,
      "Jones": 7557,
      "Matt": 7558,
      "Wel": 7559,
      "borrow": 7560,
      "codes": 7561,
      "lin": 7562,
      "oven": 7563,
      "##uous": 7564,
      "##EF": 7565,
      "##washer": 7566,
      "##otation": 7567,
      "##idays": 7568,
      "stations": 7569,
      "##imize": 7570,
      "excess": 7571,
      "##osal": 7572,
      "##ums": 7573,
      "Inf": 7574,
      "intense": 7575,
      "unk": 7576,
      "recon": 7577,
      "string": 7578,
      "streng": 7579,
      "chest": 7580,
      "personality": 7581,
      "Commer": 7582,
      "defined": 7583,
      "weekly": 7584,
      "confident": 7585,
      "legs": 7586,
      "Columb": 7587,
      "painting": 7588,
      "younger": 7589,
      "roads": 7590,
      "walked": 7591,
      "portion": 7592,
      "routine": 7593,
      "holes": 7594,
      "injuries": 7595,
      "About": 7596,
      "suffer": 7597,
      "executive": 7598,
      "fairly": 7599,
      "victory": 7600,
      "evaluation": 7601,
      "graphics": 7602,
      "flexible": 7603,
      "obviously": 7604,
      "pregnant": 7605,
      "Employ": 7606,
      "gallery": 7607,
      "powder": 7608,
      "pleasure": 7609,
      "tissue": 7610,
      "##juana": 7611,
      "marijuana": 7612,
      "Committee": 7613,
      "CS": 7614,
      "Fort": 7615,
      "Ira": 7616,
      "PD": 7617,
      "Pak": 7618,
      "Tem": 7619,
      "Tour": 7620,
      "Turn": 7621,
      "fitted": 7622,
      "gorge": 7623,
      "losing": 7624,
      "ol": 7625,
      "rar": 7626,
      "wal": 7627,
      "##och": 7628,
      "##rm": 7629,
      "##OC": 7630,
      "##!!": 7631,
      "##ani": 7632,
      "##eling": 7633,
      "##stone": 7634,
      "##cend": 7635,
      "##igan": 7636,
      "stir": 7637,
      "stunning": 7638,
      "orient": 7639,
      "deck": 7640,
      "##ears": 7641,
      "##ello": 7642,
      "##inder": 7643,
      "##achel": 7644,
      "cloth": 7645,
      "que": 7646,
      "offensive": 7647,
      "proven": 7648,
      "provision": 7649,
      "Young": 7650,
      "twe": 7651,
      "##phy": 7652,
      "attorney": 7653,
      "organized": 7654,
      "Connect": 7655,
      "draft": 7656,
      "commonly": 7657,
      "funded": 7658,
      "McG": 7659,
      "missed": 7660,
      "communicate": 7661,
      "recognize": 7662,
      "manufacturing": 7663,
      "celebrate": 7664,
      "sleeping": 7665,
      "obtained": 7666,
      "dollar": 7667,
      "cycle": 7668,
      "categories": 7669,
      "widely": 7670,
      "regulations": 7671,
      "SEO": 7672,
      "##what": 7673,
      "Looking": 7674,
      "Professor": 7675,
      "accomplish": 7676,
      "intelligence": 7677,
      "Mexico": 7678,
      "Heart": 7679,
      "hemorrh": 7680,
      "Digital": 7681,
      "46": 7682,
      "AR": 7683,
      "Bush": 7684,
      "Brown": 7685,
      "CC": 7686,
      "Econom": 7687,
      "Festival": 7688,
      "cess": 7689,
      "caught": 7690,
      "diversity": 7691,
      "pace": 7692,
      "phen": 7693,
      "sick": 7694,
      "upper": 7695,
      "##pal": 7696,
      "##worth": 7697,
      "##dney": 7698,
      "##heast": 7699,
      "##orable": 7700,
      "##itative": 7701,
      "##reland": 7702,
      "##lements": 7703,
      "ongoing": 7704,
      "##igma": 7705,
      "stim": 7706,
      "##irty": 7707,
      "##oute": 7708,
      "compare": 7709,
      "workplace": 7710,
      "featuring": 7711,
      "somewhat": 7712,
      "##uba": 7713,
      "##ensions": 7714,
      "attitude": 7715,
      "posting": 7716,
      "Army": 7717,
      "Lee": 7718,
      "##ommy": 7719,
      "##anned": 7720,
      "##ennis": 7721,
      "Engine": 7722,
      "logo": 7723,
      "causing": 7724,
      "filling": 7725,
      "Students": 7726,
      "Steel": 7727,
      "introduction": 7728,
      "strategic": 7729,
      "assignment": 7730,
      "Vegas": 7731,
      "library": 7732,
      "lesbian": 7733,
      "dynamic": 7734,
      "permanent": 7735,
      "philosoph": 7736,
      "Killian": 7737,
      "circumstances": 7738,
      "Soviet": 7739,
      "Bul": 7740,
      "Ell": 7741,
      "Ireland": 7742,
      "Kore": 7743,
      "Natur": 7744,
      "PA": 7745,
      "SAM": 7746,
      "WH": 7747,
      "Wild": 7748,
      "Yet": 7749,
      "bol": 7750,
      "dates": 7751,
      "river": 7752,
      "##ror": 7753,
      "##ray": 7754,
      "##ais": 7755,
      "##laim": 7756,
      "##gon": 7757,
      "##bon": 7758,
      "##point": 7759,
      "##igen": 7760,
      "stuck": 7761,
      "stored": 7762,
      "protein": 7763,
      "##ifies": 7764,
      "plain": 7765,
      "usage": 7766,
      "tech": 7767,
      "incident": 7768,
      "discipl": 7769,
      "seriously": 7770,
      "##anges": 7771,
      "syn": 7772,
      "instant": 7773,
      "monitor": 7774,
      "##athy": 7775,
      "presents": 7776,
      "formal": 7777,
      "earned": 7778,
      "lists": 7779,
      "Plus": 7780,
      "democracy": 7781,
      "expectations": 7782,
      "Coast": 7783,
      "staying": 7784,
      "##isco": 7785,
      "suggested": 7786,
      "replaced": 7787,
      "Quartz": 7788,
      "recipes": 7789,
      "urban": 7790,
      "guidelines": 7791,
      "opinions": 7792,
      "ultimately": 7793,
      "procedure": 7794,
      "dishwasher": 7795,
      "Roman": 7796,
      "Division": 7797,
      "Motor": 7798,
      "compliance": 7799,
      "illeg": 7800,
      "Iraq": 7801,
      "Arab": 7802,
      "Bol": 7803,
      "Boy": 7804,
      "Bible": 7805,
      "Cab": 7806,
      "Little": 7807,
      "NAS": 7808,
      "baking": 7809,
      "cosm": 7810,
      "divid": 7811,
      "gang": 7812,
      "hate": 7813,
      "hang": 7814,
      "mac": 7815,
      "rising": 7816,
      "rental": 7817,
      "veter": 7818,
      "yield": 7819,
      "##oids": 7820,
      "##hire": 7821,
      "##hops": 7822,
      "##BA": 7823,
      "##inar": 7824,
      "##edge": 7825,
      "##anz": 7826,
      "##reens": 7827,
      "##omatic": 7828,
      "thorough": 7829,
      "##enta": 7830,
      "##rog": 7831,
      "forever": 7832,
      "neuro": 7833,
      "noticed": 7834,
      "upgr": 7835,
      "intellect": 7836,
      "manual": 7837,
      "unex": 7838,
      "##ensity": 7839,
      "shed": 7840,
      "supplement": 7841,
      "suppliers": 7842,
      "designer": 7843,
      "##aze": 7844,
      "follows": 7845,
      "concrete": 7846,
      "heads": 7847,
      "investors": 7848,
      "Space": 7849,
      "campus": 7850,
      "tracking": 7851,
      "authorities": 7852,
      "statistics": 7853,
      "statistical": 7854,
      "percentage": 7855,
      "consumption": 7856,
      "figures": 7857,
      "domestic": 7858,
      "Auto": 7859,
      "boys": 7860,
      "continuing": 7861,
      "Local": 7862,
      "split": 7863,
      "argument": 7864,
      "browser": 7865,
      "streets": 7866,
      "scholars": 7867,
      "ancest": 7868,
      "3rd": 7869,
      "CH": 7870,
      "Lt": 7871,
      "SA": 7872,
      "SO": 7873,
      "Son": 7874,
      "dust": 7875,
      "mixture": 7876,
      "##13": 7877,
      "##WH": 7878,
      "##erals": 7879,
      "rear": 7880,
      "##lywood": 7881,
      "##olid": 7882,
      "alt": 7883,
      "##ogy": 7884,
      "tender": 7885,
      "quote": 7886,
      "screw": 7887,
      "sheets": 7888,
      "Which": 7889,
      "Andrew": 7890,
      "careful": 7891,
      "funny": 7892,
      "infect": 7893,
      "populations": 7894,
      "enjoying": 7895,
      "accessories": 7896,
      "capabilities": 7897,
      "movements": 7898,
      "variation": 7899,
      "hyd": 7900,
      "panel": 7901,
      "##visor": 7902,
      "innovation": 7903,
      "attended": 7904,
      "survive": 7905,
      "satisfact": 7906,
      "industries": 7907,
      "Remember": 7908,
      "##hemat": 7909,
      "dropped": 7910,
      "comparison": 7911,
      "basket": 7912,
      "##ught": 7913,
      "iPhone": 7914,
      ");": 7915,
      "DC": 7916,
      "ED": 7917,
      "Energy": 7918,
      "Gall": 7919,
      "Hun": 7920,
      "MA": 7921,
      "Mass": 7922,
      "Mont": 7923,
      "Oper": 7924,
      "RSS": 7925,
      "Sound": 7926,
      "Tay": 7927,
      "Times": 7928,
      "km": 7929,
      "lies": 7930,
      "sized": 7931,
      "vou": 7932,
      "wave": 7933,
      "##EP": 7934,
      "##how": 7935,
      "##77": 7936,
      "##ingly": 7937,
      "##rot": 7938,
      "##otic": 7939,
      "##amber": 7940,
      "##raction": 7941,
      "##cker": 7942,
      "##umes": 7943,
      "##ogs": 7944,
      "##izer": 7945,
      "contained": 7946,
      "spin": 7947,
      "evol": 7948,
      "Stock": 7949,
      "overw": 7950,
      "experiment": 7951,
      "roots": 7952,
      "strip": 7953,
      "remote": 7954,
      "attrib": 7955,
      "imper": 7956,
      "filter": 7957,
      "faced": 7958,
      "elected": 7959,
      "workshop": 7960,
      "ensuring": 7961,
      "reducing": 7962,
      "Centre": 7963,
      "packed": 7964,
      "suggests": 7965,
      "indicate": 7966,
      "scheme": 7967,
      "drinking": 7968,
      "fixed": 7969,
      "scenes": 7970,
      "reaction": 7971,
      "vacc": 7972,
      "Royal": 7973,
      "flexibility": 7974,
      "channels": 7975,
      "manufacturer": 7976,
      "##​​​​": 7977,
      "tomorrow": 7978,
      "Machine": 7979,
      "##folio": 7980,
      "vulner": 7981,
      "cessation": 7982,
      "08": 7983,
      "49": 7984,
      "56": 7985,
      "Agr": 7986,
      "Bit": 7987,
      "Er": 7988,
      "Link": 7989,
      "Morr": 7990,
      "Never": 7991,
      "SC": 7992,
      "SD": 7993,
      "Test": 7994,
      "Town": 7995,
      "san": 7996,
      "salt": 7997,
      "soph": 7998,
      "zone": 7999,
      "zero": 8000,
      "##iams": 8001,
      "##UR": 8002,
      "##de": 8003,
      "##zing": 8004,
      "##St": 8005,
      "##08": 8006,
      "ine": 8007,
      "##stream": 8008,
      "forec": 8009,
      "##utter": 8010,
      "alive": 8011,
      "##ulous": 8012,
      "##rage": 8013,
      "oral": 8014,
      "sections": 8015,
      "shirt": 8016,
      "charm": 8017,
      "allerg": 8018,
      "abuse": 8019,
      "hero": 8020,
      "scored": 8021,
      "poison": 8022,
      "decent": 8023,
      "insight": 8024,
      "belt": 8025,
      "crew": 8026,
      "sky": 8027,
      "listening": 8028,
      "possibility": 8029,
      "letting": 8030,
      "Conf": 8031,
      "checking": 8032,
      "Christians": 8033,
      "arrive": 8034,
      "blackjack": 8035,
      "packaging": 8036,
      "suggestions": 8037,
      "functional": 8038,
      "definition": 8039,
      "Kevin": 8040,
      "regardless": 8041,
      "removal": 8042,
      "bottle": 8043,
      "attempts": 8044,
      "Malays": 8045,
      "carbon": 8046,
      "crucial": 8047,
      "repeated": 8048,
      "Building": 8049,
      "Furthermore": 8050,
      "landscape": 8051,
      "reputation": 8052,
      "substantial": 8053,
      "trigger": 8054,
      "Pakistan": 8055,
      "44": 8056,
      "52": 8057,
      "?\"": 8058,
      "BB": 8059,
      "Bang": 8060,
      "Cook": 8061,
      "Ford": 8062,
      "Gar": 8063,
      "Ham": 8064,
      "Know": 8065,
      "Living": 8066,
      "ON": 8067,
      "Point": 8068,
      "Tax": 8069,
      "Ur": 8070,
      "Very": 8071,
      "bars": 8072,
      "cm": 8073,
      "golf": 8074,
      "mand": 8075,
      "migr": 8076,
      "tack": 8077,
      "wis": 8078,
      "##aper": 8079,
      "##flow": 8080,
      "##yck": 8081,
      "##LE": 8082,
      "##oned": 8083,
      "##alse": 8084,
      "##asive": 8085,
      "##illy": 8086,
      "##stal": 8087,
      "stake": 8088,
      "##irm": 8089,
      "suspect": 8090,
      "##using": 8091,
      "shots": 8092,
      "doctors": 8093,
      "compat": 8094,
      "compens": 8095,
      "##agers": 8096,
      "##cco": 8097,
      "containing": 8098,
      "aggreg": 8099,
      "interface": 8100,
      "offices": 8101,
      "column": 8102,
      "remained": 8103,
      "Univers": 8104,
      "asset": 8105,
      "skilled": 8106,
      "boots": 8107,
      "exposed": 8108,
      "passeng": 8109,
      "ordered": 8110,
      "##redit": 8111,
      "matters": 8112,
      "diy": 8113,
      "casual": 8114,
      "editor": 8115,
      "liked": 8116,
      "emails": 8117,
      "Guide": 8118,
      "managing": 8119,
      "hosted": 8120,
      "initially": 8121,
      "##ventions": 8122,
      "Author": 8123,
      "applies": 8124,
      "consistent": 8125,
      "incredibly": 8126,
      "convenient": 8127,
      "comprom": 8128,
      "satisfied": 8129,
      "architecture": 8130,
      "inventory": 8131,
      "Family": 8132,
      "criticism": 8133,
      "licensed": 8134,
      "Liu": 8135,
      "succeed": 8136,
      "##reprene": 8137,
      "AD": 8138,
      "Bon": 8139,
      "Cam": 8140,
      "Cup": 8141,
      "Du": 8142,
      "Jud": 8143,
      "Mind": 8144,
      "Master": 8145,
      "Sar": 8146,
      "Try": 8147,
      "crown": 8148,
      "lie": 8149,
      "laugh": 8150,
      "uk": 8151,
      "##no": 8152,
      "##rid": 8153,
      "##lights": 8154,
      "##fe": 8155,
      "##words": 8156,
      "##ko": 8157,
      "##16": 8158,
      "##inos": 8159,
      "toe": 8160,
      "##anes": 8161,
      "inher": 8162,
      "##asm": 8163,
      "##etry": 8164,
      "sending": 8165,
      "neither": 8166,
      "##uster": 8167,
      "##ema": 8168,
      "enth": 8169,
      "Three": 8170,
      "adequ": 8171,
      "clar": 8172,
      "##lov": 8173,
      "unable": 8174,
      "impossible": 8175,
      "agric": 8176,
      "synt": 8177,
      "flash": 8178,
      "Share": 8179,
      "availability": 8180,
      "approval": 8181,
      "obst": 8182,
      "Tele": 8183,
      "Exec": 8184,
      "Place": 8185,
      "certific": 8186,
      "certified": 8187,
      "arrival": 8188,
      "networks": 8189,
      "improvements": 8190,
      "cuts": 8191,
      "recommendations": 8192,
      "Robert": 8193,
      "Sydney": 8194,
      "traveling": 8195,
      "sensitive": 8196,
      "debate": 8197,
      "Williams": 8198,
      "speaker": 8199,
      "subscrib": 8200,
      "Steve": 8201,
      "describe": 8202,
      "drawing": 8203,
      "displayed": 8204,
      "referred": 8205,
      "terror": 8206,
      "Charl": 8207,
      "##burg": 8208,
      "diagnosis": 8209,
      "instrument": 8210,
      "interpret": 8211,
      "cigarettes": 8212,
      "anxiety": 8213,
      "Mobile": 8214,
      "laptop": 8215,
      "murder": 8216,
      "gorgeous": 8217,
      "43": 8218,
      "42": 8219,
      "55": 8220,
      "Aff": 8221,
      "End": 8222,
      "Fun": 8223,
      "Full": 8224,
      "Jose": 8225,
      "Las": 8226,
      "Mov": 8227,
      "Sus": 8228,
      "bull": 8229,
      "founder": 8230,
      "hike": 8231,
      "hits": 8232,
      "horr": 8233,
      "lub": 8234,
      "marriage": 8235,
      "pit": 8236,
      "pars": 8237,
      "##uction": 8238,
      "##bits": 8239,
      "##EW": 8240,
      "##IR": 8241,
      "##LA": 8242,
      "##TC": 8243,
      "##stood": 8244,
      "forest": 8245,
      "##urse": 8246,
      "prol": 8247,
      "##esthetic": 8248,
      "sup": 8249,
      "##ellite": 8250,
      "newly": 8251,
      "aggress": 8252,
      "Chair": 8253,
      "Chief": 8254,
      "strict": 8255,
      "##ologists": 8256,
      "crime": 8257,
      "##ools": 8258,
      "finest": 8259,
      "monetary": 8260,
      "marked": 8261,
      "subsequ": 8262,
      "supports": 8263,
      "disturb": 8264,
      "slots": 8265,
      "specialist": 8266,
      "superior": 8267,
      "Report": 8268,
      "closet": 8269,
      "existence": 8270,
      "delivering": 8271,
      "Buy": 8272,
      "copyright": 8273,
      "Afghan": 8274,
      "preparation": 8275,
      "cathe": 8276,
      "persons": 8277,
      "hoping": 8278,
      "depends": 8279,
      "Programme": 8280,
      "complain": 8281,
      "collaboration": 8282,
      "Help": 8283,
      "PLWH": 8284,
      "Silver": 8285,
      "Join": 8286,
      "sharp": 8287,
      "##onymous": 8288,
      "unknown": 8289,
      "!)": 8290,
      "Aud": 8291,
      "Ball": 8292,
      "Federal": 8293,
      "Hard": 8294,
      "Low": 8295,
      "Lab": 8296,
      "Line": 8297,
      "Norm": 8298,
      "Press": 8299,
      "Pract": 8300,
      "Tai": 8301,
      "Wi": 8302,
      "dur": 8303,
      "gaming": 8304,
      "ore": 8305,
      "rod": 8306,
      "roles": 8307,
      "tut": 8308,
      "tread": 8309,
      "##..": 8310,
      "tooth": 8311,
      "##etr": 8312,
      "##road": 8313,
      "##charge": 8314,
      "##ima": 8315,
      "##imony": 8316,
      "aside": 8317,
      "##rael": 8318,
      "orange": 8319,
      "weird": 8320,
      "enables": 8321,
      "##cia": 8322,
      "##ache": 8323,
      "resort": 8324,
      "##ccer": 8325,
      "intent": 8326,
      "spots": 8327,
      "spoke": 8328,
      "dishes": 8329,
      "##ensus": 8330,
      "coat": 8331,
      "drilling": 8332,
      "assume": 8333,
      "attach": 8334,
      "authors": 8335,
      "Should": 8336,
      "Leg": 8337,
      "Adam": 8338,
      "gluten": 8339,
      "##ervations": 8340,
      "Israel": 8341,
      "Conc": 8342,
      "believed": 8343,
      "controlled": 8344,
      "constant": 8345,
      "potentially": 8346,
      "workshops": 8347,
      "limits": 8348,
      "naturally": 8349,
      "tourism": 8350,
      "Gram": 8351,
      "layout": 8352,
      "respectively": 8353,
      "automatic": 8354,
      "contribution": 8355,
      "lifetime": 8356,
      "challenging": 8357,
      "exception": 8358,
      "correctly": 8359,
      "promoting": 8360,
      "frequency": 8361,
      "temperatures": 8362,
      "Customer": 8363,
      "Radio": 8364,
      "transaction": 8365,
      "occurred": 8366,
      "monitoring": 8367,
      "expansion": 8368,
      "mortgage": 8369,
      "Meanwhile": 8370,
      "lubric": 8371,
      "(“": 8372,
      "64": 8373,
      "85": 8374,
      "Ausb": 8375,
      "Cru": 8376,
      "Jon": 8377,
      "Ken": 8378,
      "Lib": 8379,
      "Mom": 8380,
      "Night": 8381,
      "OR": 8382,
      "Pam": 8383,
      "Ram": 8384,
      "Sky": 8385,
      "Southern": 8386,
      "TO": 8387,
      "Vill": 8388,
      "Way": 8389,
      "bish": 8390,
      "dw": 8391,
      "fiber": 8392,
      "gard": 8393,
      "hur": 8394,
      "loop": 8395,
      "nations": 8396,
      "rig": 8397,
      "##cers": 8398,
      "##iology": 8399,
      "##uild": 8400,
      "##nda": 8401,
      "##ico": 8402,
      "##omot": 8403,
      "##asp": 8404,
      "##elly": 8405,
      "##stery": 8406,
      "##uric": 8407,
      "reaching": 8408,
      "stack": 8409,
      "whilst": 8410,
      "comic": 8411,
      "##anto": 8412,
      "##anted": 8413,
      "shift": 8414,
      "##agues": 8415,
      "outcome": 8416,
      "outcomes": 8417,
      "loyal": 8418,
      "unw": 8419,
      "producing": 8420,
      "blow": 8421,
      "guides": 8422,
      "brill": 8423,
      "visible": 8424,
      "Level": 8425,
      "possess": 8426,
      "organisation": 8427,
      "Exchange": 8428,
      "matches": 8429,
      "engaged": 8430,
      "solve": 8431,
      "versions": 8432,
      "association": 8433,
      "preparing": 8434,
      "celebration": 8435,
      "firms": 8436,
      "Corpor": 8437,
      "surprising": 8438,
      "aims": 8439,
      "escape": 8440,
      "increasingly": 8441,
      "confirmed": 8442,
      "demonstrate": 8443,
      "Latin": 8444,
      "vegetables": 8445,
      "legislation": 8446,
      "photographer": 8447,
      "buttons": 8448,
      "sufficient": 8449,
      "Jacob": 8450,
      "rarely": 8451,
      "unexpected": 8452,
      "overwhel": 8453,
      "BM": 8454,
      "Cre": 8455,
      "MP": 8456,
      "Penn": 8457,
      "Tommy": 8458,
      "Ut": 8459,
      "Would": 8460,
      "awards": 8461,
      "dad": 8462,
      "gel": 8463,
      "lady": 8464,
      "wra": 8465,
      "##itr": 8466,
      "##adium": 8467,
      "##ige": 8468,
      "stood": 8469,
      "abst": 8470,
      "plug": 8471,
      "hasn": 8472,
      "clock": 8473,
      "spam": 8474,
      "##ultural": 8475,
      "Stan": 8476,
      "##ildung": 8477,
      "script": 8478,
      "colours": 8479,
      "findings": 8480,
      "Rev": 8481,
      "branch": 8482,
      "showc": 8483,
      "##iversary": 8484,
      "submitted": 8485,
      "childhood": 8486,
      "boot": 8487,
      "expressed": 8488,
      "Industr": 8489,
      "lesser": 8490,
      "focuses": 8491,
      "Meet": 8492,
      "reviewed": 8493,
      "involving": 8494,
      "packages": 8495,
      "amounts": 8496,
      "necessarily": 8497,
      "texture": 8498,
      "Johnson": 8499,
      "wooden": 8500,
      "Police": 8501,
      "catal": 8502,
      "advantages": 8503,
      "tube": 8504,
      "carrying": 8505,
      "Brand": 8506,
      "Georgia": 8507,
      "principle": 8508,
      "adopted": 8509,
      "historic": 8510,
      "quantum": 8511,
      "complaint": 8512,
      "semi": 8513,
      "expanded": 8514,
      "magnetic": 8515,
      "Queens": 8516,
      "photographs": 8517,
      "fifth": 8518,
      "template": 8519,
      "samples": 8520,
      "Executive": 8521,
      "Ausbildung": 8522,
      "%.": 8523,
      "'.": 8524,
      "58": 8525,
      "66": 8526,
      "Cooper": 8527,
      "Ill": 8528,
      "MS": 8529,
      "Mic": 8530,
      "Non": 8531,
      "Ult": 8532,
      "Van": 8533,
      "cater": 8534,
      "downt": 8535,
      "hole": 8536,
      "mood": 8537,
      "tone": 8538,
      "”)": 8539,
      "##gely": 8540,
      "##press": 8541,
      "##da": 8542,
      "##zer": 8543,
      "##ki": 8544,
      "##D12": 8545,
      "##erving": 8546,
      "##ati": 8547,
      "##onna": 8548,
      "##eding": 8549,
      "##itan": 8550,
      "##itage": 8551,
      "##isa": 8552,
      "stages": 8553,
      "susp": 8554,
      "##antry": 8555,
      "shr": 8556,
      "complim": 8557,
      "tries": 8558,
      "intention": 8559,
      "##active": 8560,
      "##ansas": 8561,
      "spir": 8562,
      "evolution": 8563,
      "unb": 8564,
      "justice": 8565,
      "Asian": 8566,
      "Ref": 8567,
      "studying": 8568,
      "experiencing": 8569,
      "ske": 8570,
      "##endar": 8571,
      "advent": 8572,
      "##ups": 8573,
      "approaches": 8574,
      "directed": 8575,
      "Trust": 8576,
      "muscle": 8577,
      "elig": 8578,
      "employed": 8579,
      "believes": 8580,
      "couples": 8581,
      "covering": 8582,
      "electrical": 8583,
      "probability": 8584,
      "stronger": 8585,
      "portfolio": 8586,
      "routes": 8587,
      "computers": 8588,
      "requests": 8589,
      "inflamm": 8590,
      "sensor": 8591,
      "targeted": 8592,
      "speakers": 8593,
      "domin": 8594,
      "Agree": 8595,
      "injured": 8596,
      "documentation": 8597,
      "boyfriend": 8598,
      "encouraged": 8599,
      "suffered": 8600,
      "Republican": 8601,
      "scenario": 8602,
      "scientists": 8603,
      "component": 8604,
      "pregnancy": 8605,
      "enemy": 8606,
      "consequences": 8607,
      "crisis": 8608,
      "lymph": 8609,
      "Philippines": 8610,
      "beneficial": 8611,
      "liquid": 8612,
      "SAMD12": 8613,
      "Taylor": 8614,
      "04": 8615,
      "2nd": 8616,
      "3D": 8617,
      "Cy": 8618,
      "Dru": 8619,
      "Far": 8620,
      "Four": 8621,
      "Foot": 8622,
      "Middle": 8623,
      "Ophthalmology": 8624,
      "Pub": 8625,
      "SS": 8626,
      "Sigma": 8627,
      "Var": 8628,
      "lau": 8629,
      "native": 8630,
      "ought": 8631,
      "pour": 8632,
      "rural": 8633,
      "southern": 8634,
      "tall": 8635,
      "wer": 8636,
      "##ait": 8637,
      "##lers": 8638,
      "##lined": 8639,
      "##win": 8640,
      "##wear": 8641,
      "##water": 8642,
      "##II": 8643,
      "##TO": 8644,
      "##TR": 8645,
      "##19": 8646,
      "##onic": 8647,
      "storm": 8648,
      "exceed": 8649,
      "neut": 8650,
      "##emed": 8651,
      "##udd": 8652,
      "##agen": 8653,
      "Italy": 8654,
      "anymore": 8655,
      "arms": 8656,
      "peer": 8657,
      "##prints": 8658,
      "##weight": 8659,
      "##athan": 8660,
      "surf": 8661,
      "booth": 8662,
      "largely": 8663,
      "extent": 8664,
      "Without": 8665,
      "Coll": 8666,
      "alongside": 8667,
      "reduction": 8668,
      "tourists": 8669,
      "implemented": 8670,
      "destroy": 8671,
      "decorating": 8672,
      "priority": 8673,
      "renov": 8674,
      "promotion": 8675,
      "alternatives": 8676,
      "concepts": 8677,
      "Ideal": 8678,
      "Area": 8679,
      "attractive": 8680,
      "garlic": 8681,
      "flavour": 8682,
      "saved": 8683,
      "Kingdom": 8684,
      "assigned": 8685,
      "##izza": 8686,
      "Technical": 8687,
      "apparently": 8688,
      "victims": 8689,
      "Standard": 8690,
      "pupp": 8691,
      "##stein": 8692,
      "suddenly": 8693,
      "enthus": 8694,
      "treadm": 8695,
      "BY": 8696,
      "Bes": 8697,
      "Bed": 8698,
      "Live": 8699,
      "Language": 8700,
      "NFL": 8701,
      "Po": 8702,
      "Right": 8703,
      "Roof": 8704,
      "Sat": 8705,
      "Ten": 8706,
      "Wal": 8707,
      "ax": 8708,
      "fet": 8709,
      "fits": 8710,
      "pra": 8711,
      "rack": 8712,
      "tact": 8713,
      "tang": 8714,
      "yoga": 8715,
      "##life": 8716,
      "##yan": 8717,
      "##df": 8718,
      "##inent": 8719,
      "##inely": 8720,
      "thе": 8721,
      "segment": 8722,
      "exter": 8723,
      "##ateur": 8724,
      "shamp": 8725,
      "##iends": 8726,
      "prison": 8727,
      "##acco": 8728,
      "##apes": 8729,
      "##ubble": 8730,
      "colored": 8731,
      "indoor": 8732,
      "##iano": 8733,
      "shouldn": 8734,
      "minerals": 8735,
      "Dev": 8736,
      "Beaut": 8737,
      "listing": 8738,
      "Price": 8739,
      "Prime": 8740,
      "performances": 8741,
      "powered": 8742,
      "estimate": 8743,
      "Tech": 8744,
      "moves": 8745,
      "statements": 8746,
      "lesson": 8747,
      "behalf": 8748,
      "diam": 8749,
      "checked": 8750,
      "aircraft": 8751,
      "entering": 8752,
      "tradition": 8753,
      "drawn": 8754,
      "wondering": 8755,
      "Enjoy": 8756,
      "requested": 8757,
      "joining": 8758,
      "holidays": 8759,
      "manufactured": 8760,
      "fault": 8761,
      "Communic": 8762,
      "salary": 8763,
      "relaxing": 8764,
      "hopes": 8765,
      "passionate": 8766,
      "irr": 8767,
      "shutters": 8768,
      "configuration": 8769,
      "rapidly": 8770,
      "retirement": 8771,
      "Hawaii": 8772,
      "57": 8773,
      "Bost": 8774,
      "Eye": 8775,
      "Gh": 8776,
      "Garden": 8777,
      "Jam": 8778,
      "Jul": 8779,
      "Kenn": 8780,
      "Museum": 8781,
      "OK": 8782,
      "Pot": 8783,
      "Poly": 8784,
      "Ray": 8785,
      "Tal": 8786,
      "dancing": 8787,
      "fest": 8788,
      "fib": 8789,
      "false": 8790,
      "gained": 8791,
      "gym": 8792,
      "hes": 8793,
      "kits": 8794,
      "moon": 8795,
      "por": 8796,
      "tired": 8797,
      "tension": 8798,
      "wise": 8799,
      "##ois": 8800,
      "##lis": 8801,
      "##inc": 8802,
      "##intend": 8803,
      "##erning": 8804,
      "therm": 8805,
      "##itory": 8806,
      "##rection": 8807,
      "##eto": 8808,
      "##idal": 8809,
      "##ador": 8810,
      "yours": 8811,
      "##ifier": 8812,
      "shops": 8813,
      "##una": 8814,
      "chart": 8815,
      "chances": 8816,
      "##cip": 8817,
      "Thai": 8818,
      "##ags": 8819,
      "##assion": 8820,
      "evil": 8821,
      "scan": 8822,
      "phones": 8823,
      "##neys": 8824,
      "##ertain": 8825,
      "Frame": 8826,
      "Force": 8827,
      "##iox": 8828,
      "memories": 8829,
      "pointed": 8830,
      "Admin": 8831,
      "##lessly": 8832,
      "refund": 8833,
      "gotten": 8834,
      "faculty": 8835,
      "explan": 8836,
      "airport": 8837,
      "Scot": 8838,
      "requirement": 8839,
      "1000": 8840,
      "250": 8841,
      "contractor": 8842,
      "Train": 8843,
      "addresses": 8844,
      "representing": 8845,
      "Contract": 8846,
      "participation": 8847,
      "heavily": 8848,
      "communications": 8849,
      "layers": 8850,
      "recognition": 8851,
      "banker": 8852,
      "merch": 8853,
      "analytics": 8854,
      "Jersey": 8855,
      "quantity": 8856,
      "absolute": 8857,
      "graphic": 8858,
      "datasheet": 8859,
      "carrier": 8860,
      "##paper": 8861,
      "decrease": 8862,
      "Following": 8863,
      "##otherapy": 8864,
      "Software": 8865,
      "intellectual": 8866,
      "Ltd": 8867,
      "Afghanistan": 8868,
      "Boston": 8869,
      "CM": 8870,
      "DV": 8871,
      "Greek": 8872,
      "IM": 8873,
      "Kitchen": 8874,
      "Mess": 8875,
      "Mike": 8876,
      "Max": 8877,
      "Pers": 8878,
      "RE": 8879,
      "RA": 8880,
      "Ron": 8881,
      "Sem": 8882,
      "Squ": 8883,
      "WA": 8884,
      "banks": 8885,
      "bench": 8886,
      "giant": 8887,
      "hiring": 8888,
      "pushing": 8889,
      "tie": 8890,
      "wake": 8891,
      "##cue": 8892,
      "##iors": 8893,
      "##atoes": 8894,
      "isol": 8895,
      "##utable": 8896,
      "##verted": 8897,
      "alter": 8898,
      "seats": 8899,
      "export": 8900,
      "chips": 8901,
      "##umer": 8902,
      "##iece": 8903,
      "aband": 8904,
      "##agon": 8905,
      "contest": 8906,
      "manif": 8907,
      "##ailable": 8908,
      "##iah": 8909,
      "Webs": 8910,
      "##ictions": 8911,
      "##amps": 8912,
      "insert": 8913,
      "writers": 8914,
      "grill": 8915,
      "boat": 8916,
      "county": 8917,
      "entreprene": 8918,
      "mush": 8919,
      "democr": 8920,
      "enjoyable": 8921,
      "investments": 8922,
      "##mediate": 8923,
      "Cole": 8924,
      "combine": 8925,
      "##appy": 8926,
      "contracts": 8927,
      "ceiling": 8928,
      "##riptions": 8929,
      "targets": 8930,
      "mixing": 8931,
      "Smith": 8932,
      "talks": 8933,
      "medication": 8934,
      "preferred": 8935,
      "Broad": 8936,
      "evaluate": 8937,
      "acquired": 8938,
      "##iami": 8939,
      "breathing": 8940,
      "capture": 8941,
      "vacation": 8942,
      "Technology": 8943,
      "exhibition": 8944,
      "alleged": 8945,
      "encounter": 8946,
      "##abetes": 8947,
      "jewelry": 8948,
      "Virginia": 8949,
      "satisfaction": 8950,
      "Roofing": 8951,
      "Cop": 8952,
      "Cand": 8953,
      "Cross": 8954,
      "Dream": 8955,
      "Him": 8956,
      "Hous": 8957,
      "Harr": 8958,
      "Less": 8959,
      "Pack": 8960,
      "Porn": 8961,
      "Pope": 8962,
      "Rod": 8963,
      "bold": 8964,
      "boss": 8965,
      "cu": 8966,
      "cher": 8967,
      "dent": 8968,
      "fles": 8969,
      "honey": 8970,
      "henta": 8971,
      "jun": 8972,
      "pic": 8973,
      "patch": 8974,
      "##hol": 8975,
      "##vity": 8976,
      "##25": 8977,
      "##HA": 8978,
      "infer": 8979,
      "##icit": 8980,
      "##uter": 8981,
      "##aded": 8982,
      "Theatre": 8983,
      "franch": 8984,
      "sus": 8985,
      "Think": 8986,
      "legend": 8987,
      "resident": 8988,
      "Stone": 8989,
      "unl": 8990,
      "disaster": 8991,
      "overlook": 8992,
      "scores": 8993,
      "wanting": 8994,
      "Ash": 8995,
      "supplier": 8996,
      "inspect": 8997,
      "instruction": 8998,
      "fewer": 8999,
      "purple": 9000,
      "effectiveness": 9001,
      "resulted": 9002,
      "lessons": 9003,
      "equally": 9004,
      "equival": 9005,
      "safely": 9006,
      "singing": 9007,
      "Manager": 9008,
      "trading": 9009,
      "tempt": 9010,
      "##ERS": 9011,
      "independ": 9012,
      "moral": 9013,
      "significance": 9014,
      "panels": 9015,
      "Britain": 9016,
      "ordinary": 9017,
      "illness": 9018,
      "Morgan": 9019,
      "Charles": 9020,
      "Muslim": 9021,
      "Systems": 9022,
      "##forcement": 9023,
      "mistakes": 9024,
      "quotes": 9025,
      "sacr": 9026,
      "enemies": 9027,
      "Democratic": 9028,
      "oblig": 9029,
      "nursing": 9030,
      "behaviour": 9031,
      "Quality": 9032,
      "astronaut": 9033,
      "elegant": 9034,
      "lubricant": 9035,
      "600": 9036,
      "700": 9037,
      "Credit": 9038,
      "Due": 9039,
      "Ever": 9040,
      "HU": 9041,
      "Les": 9042,
      "Lov": 9043,
      "Ms": 9044,
      "Material": 9045,
      "Sher": 9046,
      "Talk": 9047,
      "Tenn": 9048,
      "bunch": 9049,
      "dedic": 9050,
      "ocean": 9051,
      "rated": 9052,
      "yard": 9053,
      "##oen": 9054,
      "##nov": 9055,
      "##rian": 9056,
      "##fall": 9057,
      "##bre": 9058,
      "##ystem": 9059,
      "##ygen": 9060,
      "##FA": 9061,
      "##15": 9062,
      "##inter": 9063,
      "##inction": 9064,
      "##isk": 9065,
      "##isters": 9066,
      "##roat": 9067,
      "##amental": 9068,
      "anch": 9069,
      "ships": 9070,
      "plates": 9071,
      "heal": 9072,
      "pride": 9073,
      "prime": 9074,
      "pricing": 9075,
      "perpet": 9076,
      "precious": 9077,
      "trav": 9078,
      "experim": 9079,
      "ownership": 9080,
      "##arma": 9081,
      "##plete": 9082,
      "transpar": 9083,
      "handy": 9084,
      "2002": 9085,
      "##ussy": 9086,
      "operational": 9087,
      "payments": 9088,
      "investing": 9089,
      "deposit": 9090,
      "focusing": 9091,
      "anniversary": 9092,
      "array": 9093,
      "##rooms": 9094,
      "environments": 9095,
      "admit": 9096,
      "tournament": 9097,
      "damages": 9098,
      "falls": 9099,
      "1990": 9100,
      "examine": 9101,
      "clicking": 9102,
      "silk": 9103,
      "functionality": 9104,
      "Country": 9105,
      "blocks": 9106,
      "medications": 9107,
      "substance": 9108,
      "##ENT": 9109,
      "platforms": 9110,
      "instructor": 9111,
      "Jerusal": 9112,
      "voters": 9113,
      "revolution": 9114,
      "Working": 9115,
      "disappear": 9116,
      "granted": 9117,
      "initiative": 9118,
      "Professional": 9119,
      "volunteers": 9120,
      "Personal": 9121,
      "episode": 9122,
      "Henry": 9123,
      "Jerusalem": 9124,
      "!”": 9125,
      "Aw": 9126,
      "Ce": 9127,
      "Ess": 9128,
      "GA": 9129,
      "Give": 9130,
      "Hester": 9131,
      "Kind": 9132,
      "Len": 9133,
      "Mos": 9134,
      "Miami": 9135,
      "Psych": 9136,
      "Poker": 9137,
      "Save": 9138,
      "Treat": 9139,
      "bid": 9140,
      "bother": 9141,
      "bacter": 9142,
      "bubble": 9143,
      "cakes": 9144,
      "fiction": 9145,
      "je": 9146,
      "mit": 9147,
      "rif": 9148,
      "sorry": 9149,
      "tours": 9150,
      "##oons": 9151,
      "##iang": 9152,
      "##UT": 9153,
      "##Press": 9154,
      "##CC": 9155,
      "toys": 9156,
      "##anium": 9157,
      "##arian": 9158,
      "##alle": 9159,
      "##omp": 9160,
      "##ione": 9161,
      "##utch": 9162,
      "##emony": 9163,
      "abund": 9164,
      "soccer": 9165,
      "height": 9166,
      "2020": 9167,
      "contr": 9168,
      "loans": 9169,
      "incent": 9170,
      "spell": 9171,
      "Chap": 9172,
      "recall": 9173,
      "##teen": 9174,
      "conservation": 9175,
      "##erto": 9176,
      "minimal": 9177,
      "designing": 9178,
      "designers": 9179,
      "grat": 9180,
      "##azed": 9181,
      "transition": 9182,
      "politics": 9183,
      "charity": 9184,
      "empty": 9185,
      "oldest": 9186,
      "opposition": 9187,
      "breaking": 9188,
      "##cuits": 9189,
      "occurs": 9190,
      "variations": 9191,
      "grace": 9192,
      "Need": 9193,
      "summit": 9194,
      "tourist": 9195,
      "damaged": 9196,
      "fallen": 9197,
      "representation": 9198,
      "examination": 9199,
      "taxes": 9200,
      "motion": 9201,
      "celebrated": 9202,
      "Policy": 9203,
      "characteristics": 9204,
      "Donald": 9205,
      "attacks": 9206,
      "burning": 9207,
      "frequent": 9208,
      "drops": 9209,
      "broadcast": 9210,
      "Method": 9211,
      "interactive": 9212,
      "transportation": 9213,
      "weapon": 9214,
      "Members": 9215,
      "Daniel": 9216,
      "shelter": 9217,
      "fulfill": 9218,
      "##iculum": 9219,
      "adoption": 9220,
      "##conscious": 9221,
      "genuine": 9222,
      "Secretary": 9223,
      "Welcome": 9224,
      "Malaysia": 9225,
      "##lovak": 9226,
      "catheter": 9227,
      "Grammy": 9228,
      "%,": 9229,
      "):": 9230,
      "54": 9231,
      "AV": 9232,
      "Bru": 9233,
      "Bits": 9234,
      "Come": 9235,
      "Carr": 9236,
      "Camer": 9237,
      "Domin": 9238,
      "Field": 9239,
      "GP": 9240,
      "GPS": 9241,
      "Hong": 9242,
      "IA": 9243,
      "Later": 9244,
      "Mother": 9245,
      "Rose": 9246,
      "Sup": 9247,
      "cats": 9248,
      "gent": 9249,
      "ham": 9250,
      "museum": 9251,
      "nach": 9252,
      "rating": 9253,
      "sou": 9254,
      "sought": 9255,
      "ta": 9256,
      "vess": 9257,
      "##can": 9258,
      "##ls": 9259,
      "##lines": 9260,
      "##giving": 9261,
      "##SM": 9262,
      "##isition": 9263,
      "##icious": 9264,
      "##icians": 9265,
      "rect": 9266,
      "confer": 9267,
      "##opl": 9268,
      "washing": 9269,
      "##ivals": 9270,
      "##emark": 9271,
      "enabled": 9272,
      "dose": 9273,
      "ups": 9274,
      "inches": 9275,
      "span": 9276,
      "union": 9277,
      "unus": 9278,
      "uncom": 9279,
      "themes": 9280,
      "Choose": 9281,
      "accord": 9282,
      "coal": 9283,
      "wellness": 9284,
      "conserv": 9285,
      "consolid": 9286,
      "understood": 9287,
      "reader": 9288,
      "Franc": 9289,
      "Proper": 9290,
      "Death": 9291,
      "discl": 9292,
      "opens": 9293,
      "metab": 9294,
      "explo": 9295,
      "##ockey": 9296,
      "puts": 9297,
      "##ronics": 9298,
      "exploring": 9299,
      "Isl": 9300,
      "nights": 9301,
      "controls": 9302,
      "Sche": 9303,
      "trademark": 9304,
      "lowest": 9305,
      "laid": 9306,
      "latter": 9307,
      "films": 9308,
      "physician": 9309,
      "elsewhere": 9310,
      "creditors": 9311,
      "engineers": 9312,
      "##backs": 9313,
      "settled": 9314,
      "Profiles": 9315,
      "telephone": 9316,
      "regulatory": 9317,
      "guaranteed": 9318,
      "tagged": 9319,
      "sequence": 9320,
      "fraud": 9321,
      "hookup": 9322,
      "concentration": 9323,
      "Marketing": 9324,
      "sponsors": 9325,
      "watched": 9326,
      "beliefs": 9327,
      "hypot": 9328,
      "colleagues": 9329,
      "narrative": 9330,
      "Ideas": 9331,
      "Private": 9332,
      "divided": 9333,
      "flesh": 9334,
      "Da": 9335,
      "DW": 9336,
      "Eastern": 9337,
      "Hi": 9338,
      "NA": 9339,
      "Pan": 9340,
      "Rest": 9341,
      "Sn": 9342,
      "cin": 9343,
      "dual": 9344,
      "gal": 9345,
      "hors": 9346,
      "rice": 9347,
      "vs": 9348,
      "##sm": 9349,
      "##rich": 9350,
      "##then": 9351,
      "##uh": 9352,
      "##ba": 9353,
      "##FF": 9354,
      "##RM": 9355,
      "##WC": 9356,
      "##ingers": 9357,
      "toxic": 9358,
      "##ashed": 9359,
      "##eties": 9360,
      "##igate": 9361,
      "fruits": 9362,
      "sees": 9363,
      "suite": 9364,
      "##abul": 9365,
      "prize": 9366,
      "meals": 9367,
      "perm": 9368,
      "Stat": 9369,
      "impression": 9370,
      "impressed": 9371,
      "relie": 9372,
      "decline": 9373,
      "shoulder": 9374,
      "remed": 9375,
      "setup": 9376,
      "Front": 9377,
      "artistic": 9378,
      "lasting": 9379,
      "boiler": 9380,
      "empower": 9381,
      "Shel": 9382,
      "operated": 9383,
      "conclusion": 9384,
      "faces": 9385,
      "explains": 9386,
      "engines": 9387,
      "actively": 9388,
      "viewing": 9389,
      "winner": 9390,
      "creativity": 9391,
      "##lla": 9392,
      "constit": 9393,
      "accounting": 9394,
      "ensures": 9395,
      "solo": 9396,
      "likes": 9397,
      "stayed": 9398,
      "Nothing": 9399,
      "Chef": 9400,
      "fundamental": 9401,
      "claimed": 9402,
      "measuring": 9403,
      "difficulties": 9404,
      "publish": 9405,
      "Includ": 9406,
      "structures": 9407,
      "Everything": 9408,
      "Mrs": 9409,
      "penal": 9410,
      "Clear": 9411,
      "consultation": 9412,
      "##haust": 9413,
      "Golden": 9414,
      "##ixtures": 9415,
      "honestly": 9416,
      "talented": 9417,
      "supplied": 9418,
      "spectac": 9419,
      "Hotel": 9420,
      "##semble": 9421,
      "recruit": 9422,
      "universities": 9423,
      "emphasis": 9424,
      "trauma": 9425,
      "wisdom": 9426,
      "adequate": 9427,
      "Website": 9428,
      "Bad": 9429,
      "CO": 9430,
      "Cover": 9431,
      "Ent": 9432,
      "Fact": 9433,
      "FRE": 9434,
      "Hon": 9435,
      "Holy": 9436,
      "Jess": 9437,
      "Kr": 9438,
      "Kot": 9439,
      "Lind": 9440,
      "Mir": 9441,
      "Much": 9442,
      "Member": 9443,
      "Ox": 9444,
      "Prem": 9445,
      "Ra": 9446,
      "Tick": 9447,
      "Target": 9448,
      "Ver": 9449,
      "Vit": 9450,
      "Viet": 9451,
      "hence": 9452,
      "kud": 9453,
      "lets": 9454,
      "lemon": 9455,
      "rac": 9456,
      "racing": 9457,
      "sed": 9458,
      "tor": 9459,
      "tip": 9460,
      "tied": 9461,
      "vel": 9462,
      "##pass": 9463,
      "##83": 9464,
      "##46": 9465,
      "##itate": 9466,
      "##oman": 9467,
[...]
